<unk>	0
<s>	0
</s>	0
,	-2.68112
.	-3.13145
▁the	-3.29434
▁and	-3.76066
▁of	-3.82867
s	-3.88588
▁to	-4.28285
▁in	-4.48177
▁I	-4.48253
▁a	-4.54488
;	-4.71788
▁that	-4.76882
▁And	-4.88588
:	-4.89726
▁is	-5.07082
▁his	-5.07197
▁he	-5.115
▁with	-5.16789
▁for	-5.17125
▁not	-5.17676
d	-5.17913
▁be	-5.21656
▁my	-5.21738
▁you	-5.23904
?	-5.25235
▁it	-5.29458
▁me	-5.40166
▁shall	-5.42348
▁him	-5.43024
ed	-5.49809
▁as	-5.62097
▁was	-5.62388
ing	-5.62798
▁have	-5.6354
▁all	-5.63848
▁The	-5.67453
▁thou	-5.68546
▁they	-5.72161
▁this	-5.74636
▁unto	-5.78824
▁will	-5.79222
▁them	-5.80015
e	-5.82892
!	-5.83774
▁thy	-5.83923
▁your	-5.83986
▁by	-5.8742
▁from	-5.89709
▁her	-5.91026
▁on	-5.91486
-	-5.95421
▁but	-5.9923
▁are	-6.01471
▁which	-6.01756
▁thee	-6.02321
'	-6.02685
▁their	-6.06348
▁LORD	-6.09753
▁so	-6.11535
t	-6.16401
ly	-6.23581
▁at	-6.24422
▁were	-6.2569
▁"	-6.26618
▁do	-6.3305
▁man	-6.34638
▁God	-6.35554
▁no	-6.38302
▁But	-6.38677
▁we	-6.39873
er	-6.39944
▁A	-6.42744
▁or	-6.44613
▁had	-6.44692
▁out	-6.45828
▁To	-6.46152
▁an	-6.46159
y	-6.46351
▁said	-6.47816
▁one	-6.50559
▁For	-6.51127
▁when	-6.51607
▁our	-6.52164
▁O	-6.53035
▁upon	-6.53432
▁That	-6.57956
▁she	-6.58013
▁ye	-6.58913
▁hath	-6.59625
n	-6.6032
▁up	-6.60876
▁there	-6.63139
▁come	-6.67034
r	-6.67059
▁more	-6.69711
▁what	-6.70994
▁us	-6.71413
p	-6.71982
▁He	-6.74227
▁good	-6.75426
▁now	-6.75486
st	-6.76028
▁if	-6.78052
▁am	-6.7905
▁In	-6.7908
▁'	-6.80759
▁would	-6.83598
es	-6.84678
▁What	-6.85682
▁did	-6.86412
▁into	-6.8783
▁king	-6.89514
▁may	-6.89957
▁make	-6.92648
▁then	-6.92859
▁son	-6.93927
▁day	-6.95108
▁men	-6.95234
▁like	-6.96277
▁love	-6.97711
▁go	-6.98899
▁before	-6.99875
▁hand	-7.007
▁know	-7.01322
l	-7.01748
▁say	-7.01756
▁house	-7.01768
▁let	-7.02277
▁made	-7.03066
▁well	-7.04274
▁came	-7.04395
▁Israel	-7.04617
▁these	-7.06112
al	-7.06757
▁should	-7.07544
▁people	-7.08974
eth	-7.09502
▁(	-7.09907
▁also	-7.12521
▁see	-7.12785
▁lord	-7.13004
th	-7.13057
▁than	-7.13098
c	-7.13133
▁As	-7.13875
g	-7.14484
▁If	-7.14821
▁So	-7.14963
▁against	-7.16032
▁sir	-7.17179
▁Then	-7.1762
▁who	-7.17995
▁time	-7.18134
m	-7.19716
▁here	-7.21134
b	-7.22186
o	-7.22204
▁My	-7.22911
▁great	-7.23443
)	-7.23468
▁land	-7.23952
▁yet	-7.25197
▁two	-7.2553
▁such	-7.26634
▁down	-7.28357
▁heart	-7.28803
▁give	-7.29416
a	-7.29805
▁	-7.30139
▁after	-7.30483
▁This	-7.31886
▁Of	-7.32341
▁children	-7.32481
▁take	-7.33129
▁name	-7.33926
▁shalt	-7.34911
▁can	-7.3527
▁mine	-7.37305
le	-7.37587
re	-7.37615
▁any	-7.37634
▁Lord	-7.37866
▁Ill	-7.38044
▁You	-7.38231
▁over	-7.38379
▁father	-7.38532
▁must	-7.39009
▁some	-7.39793
▁first	-7.41549
▁other	-7.41919
▁hast	-7.42115
▁away	-7.42733
▁even	-7.42975
▁how	-7.43129
▁every	-7.43223
in	-7.43958
▁It	-7.44289
▁own	-7.45396
▁most	-7.45511
▁life	-7.45937
▁Thou	-7.47178
▁been	-7.47998
▁With	-7.48657
▁un	-7.50993
an	-7.51214
est	-7.51631
▁where	-7.51797
▁Now	-7.52114
▁things	-7.52207
▁speak	-7.52396
▁nor	-7.5266
▁S	-7.53075
i	-7.53116
▁way	-7.5317
▁How	-7.53713
▁again	-7.53804
▁much	-7.53925
▁art	-7.54428
en	-7.54692
▁went	-7.54752
w	-7.55755
▁No	-7.57072
▁too	-7.57365
▁death	-7.57702
or	-7.57763
▁Why	-7.59029
ers	-7.59907
▁put	-7.59987
▁saying	-7.61023
▁many	-7.61245
▁place	-7.61978
on	-7.6243
▁hear	-7.62441
▁forth	-7.62743
0	-7.63529
▁P	-7.65079
▁When	-7.65475
▁whom	-7.65616
▁thine	-7.65999
▁earth	-7.66285
▁about	-7.66728
▁eyes	-7.67677
▁Let	-7.68056
I	-7.68438
▁done	-7.69585
▁set	-7.69607
▁tell	-7.69889
▁might	-7.70944
f	-7.71235
▁think	-7.71402
5	-7.71725
ar	-7.71847
▁KING	-7.72116
▁ever	-7.72269
▁never	-7.72699
▁both	-7.72785
k	-7.73007
▁thus	-7.734
▁th	-7.73447
▁word	-7.73483
S	-7.73625
ur	-7.73852
▁bring	-7.74023
4	-7.74894
▁Which	-7.75145
▁night	-7.75329
▁blood	-7.75445
▁Be	-7.75552
1	-7.75608
▁old	-7.75908
▁fear	-7.75949
▁city	-7.77275
▁Who	-7.77319
ation	-7.77837
▁because	-7.78115
▁By	-7.78413
▁world	-7.78502
▁heaven	-7.78639
▁We	-7.79039
▁those	-7.79441
▁saith	-7.79517
▁part	-7.79828
▁She	-7.80217
u	-7.80502
▁doth	-7.806
▁therefore	-7.8062
8	-7.80707
▁has	-7.81585
▁brought	-7.81896
us	-7.82274
▁His	-7.82317
▁three	-7.82703
▁sons	-7.8283
▁Come	-7.82852
▁Or	-7.83195
▁B	-7.836
ch	-7.83852
▁being	-7.83896
▁C	-7.8397
▁end	-7.84017
▁very	-7.84763
▁could	-7.84913
▁himself	-7.85327
ness	-7.85586
▁s	-7.8566
▁King	-7.85776
▁off	-7.85795
▁They	-7.85989
▁F	-7.86618
▁long	-7.8727
▁head	-7.87562
▁re	-7.8761
▁_	-7.87708
▁through	-7.88613
▁days	-7.88847
ic	-7.88943
▁heard	-7.9057
▁among	-7.91209
▁pass	-7.91605
it	-7.92635
▁David	-7.92651
▁words	-7.9313
▁sweet	-7.93459
▁keep	-7.94234
v	-7.94237
3	-7.94501
▁took	-7.94638
▁fair	-7.94656
▁sent	-7.94663
▁true	-7.96295
6	-7.96341
▁fire	-7.96503
▁face	-7.97402
▁high	-7.97436
▁cannot	-7.97509
▁live	-7.9759
▁Go	-7.97626
▁Where	-7.97821
▁soul	-7.98032
▁dead	-7.98455
el	-7.98964
2	-7.99151
▁saw	-7.99408
▁T	-7.99564
▁work	-7.99991
▁right	-8.0105
▁find	-8.0108
▁pray	-8.01805
▁under	-8.01962
▁wife	-8.02118
▁There	-8.02323
▁behold	-8.02446
▁t	-8.0259
▁Jesus	-8.0268
▁another	-8.02707
▁years	-8.02851
▁brother	-8.02886
▁All	-8.02923
▁thing	-8.03146
▁die	-8.03265
h	-8.03426
able	-8.03443
▁neither	-8.04201
7	-8.04535
▁found	-8.05372
9	-8.05459
▁p	-8.05733
at	-8.06179
▁honour	-8.06362
▁look	-8.06401
▁still	-8.06438
▁thereof	-8.06858
ll	-8.07492
am	-8.07557
▁light	-8.08194
▁leave	-8.08208
▁Sir	-8.08559
▁called	-8.09111
▁thousand	-8.09268
▁E	-8.09898
▁rest	-8.10385
▁G	-8.1039
▁without	-8.10445
▁Do	-8.10585
▁none	-8.1061
ion	-8.10852
▁peace	-8.11161
A	-8.11395
▁eat	-8.11552
▁law	-8.11697
▁same	-8.11703
▁war	-8.11787
▁poor	-8.11932
▁call	-8.11975
O	-8.12009
ie	-8.1201
T	-8.12425
▁only	-8.1249
▁whose	-8.12635
▁though	-8.13792
▁woman	-8.14112
▁stand	-8.14276
▁nothing	-8.14557
▁full	-8.14748
▁bear	-8.15206
▁Well	-8.15615
▁little	-8.15673
▁gave	-8.16017
ra	-8.16308
▁daughter	-8.16376
▁while	-8.16467
▁cause	-8.167
▁new	-8.16785
as	-8.1733
▁fall	-8.17806
▁young	-8.17899
▁according	-8.1808
▁power	-8.18274
ul	-8.18774
▁Moses	-8.19341
▁W	-8.19409
▁together	-8.19457
▁gold	-8.20141
▁noble	-8.2068
▁better	-8.20752
z	-8.20959
▁hands	-8.21074
▁Jerusalem	-8.21227
▁left	-8.21466
▁evil	-8.21834
▁FIRST	-8.22182
▁side	-8.22377
▁voice	-8.22785
il	-8.22901
▁sword	-8.22974
▁given	-8.23384
▁fathers	-8.23472
ne	-8.23811
▁Your	-8.24145
▁Judah	-8.24245
▁hundred	-8.24368
ry	-8.24564
▁Ay	-8.2518
▁back	-8.26225
▁tis	-8.27004
▁sea	-8.27435
▁between	-8.27485
ies	-8.27785
less	-8.28083
E	-8.28159
▁gods	-8.28983
▁[	-8.29291
▁mother	-8.2987
lo	-8.30002
▁Therefore	-8.30181
▁Not	-8.3038
im	-8.30431
▁sin	-8.30474
▁eye	-8.30744
▁Thus	-8.30983
▁hold	-8.31221
is	-8.31263
▁year	-8.31299
▁Scene	-8.3136
▁Yet	-8.31588
▁best	-8.31698
▁show	-8.31731
▁turn	-8.31767
▁cast	-8.31997
L	-8.32177
et	-8.32606
▁offering	-8.32752
▁Here	-8.32815
▁water	-8.32981
▁till	-8.33098
▁gone	-8.33605
▁sight	-8.34076
ir	-8.34501
▁seen	-8.35726
▁master	-8.35865
▁Tis	-8.36108
▁From	-8.3622
▁four	-8.36287
la	-8.36332
man	-8.3645
▁holy	-8.37169
ity	-8.37503
▁spake	-8.37611
ter	-8.37758
▁Egypt	-8.37872
▁play	-8.38468
▁hope	-8.39174
ful	-8.3921
▁return	-8.39613
▁Thy	-8.39659
▁last	-8.39929
▁o	-8.40138
▁myself	-8.40306
▁mouth	-8.40309
▁Re	-8.40688
um	-8.41074
▁i	-8.41346
▁spirit	-8.41637
ri	-8.41893
R	-8.4204
▁servant	-8.42084
▁themselves	-8.42196
▁grace	-8.42203
▁lay	-8.42269
▁known	-8.42288
ent	-8.42401
▁far	-8.42445
ah	-8.42494
li	-8.42511
ad	-8.42687
ment	-8.42931
▁g	-8.43255
▁thought	-8.43266
▁answer	-8.43415
▁near	-8.44083
▁Shall	-8.44116
ant	-8.44421
▁faith	-8.44915
▁K	-8.45044
▁Will	-8.45186
▁state	-8.45518
▁Good	-8.4563
▁On	-8.45751
▁Is	-8.45992
▁priest	-8.46213
ish	-8.46457
▁Behold	-8.46549
▁lady	-8.47181
▁mind	-8.47354
▁comes	-8.47367
▁flesh	-8.47468
ling	-8.47534
▁truth	-8.47623
▁once	-8.47748
▁within	-8.47964
▁use	-8.48003
▁home	-8.48786
P	-8.48984
▁OF	-8.49098
▁M	-8.49274
ive	-8.49362
ate	-8.49384
▁At	-8.50223
age	-8.50332
▁An	-8.50384
▁Nay	-8.50639
▁since	-8.50958
ce	-8.51177
se	-8.51283
▁cut	-8.5131
▁seek	-8.51421
▁friend	-8.51444
▁told	-8.51725
▁Christ	-8.51902
▁tongue	-8.51993
▁b	-8.52397
to	-8.52717
▁seven	-8.53435
▁strong	-8.53658
▁help	-8.53788
▁These	-8.53928
▁R	-8.54009
▁de	-8.54106
▁Duke	-8.54351
▁D	-8.54778
▁five	-8.55194
--	-8.55329
▁child	-8.55353
▁send	-8.55534
▁ten	-8.55574
▁friends	-8.55611
▁joy	-8.55687
sh	-8.55802
▁ground	-8.55857
▁drink	-8.56169
ous	-8.56687
▁brethren	-8.56868
▁court	-8.57198
▁second	-8.57537
▁John	-8.57542
▁round	-8.57563
▁body	-8.57723
id	-8.57892
ance	-8.58004
M	-8.58364
▁stay	-8.58872
▁Her	-8.59217
▁Have	-8.59507
ge	-8.59766
▁meet	-8.59936
▁each	-8.60333
▁lie	-8.60455
▁stood	-8.61209
▁field	-8.61706
▁matter	-8.61742
de	-8.62565
▁half	-8.62639
▁shame	-8.6292
▁V	-8.63265
▁else	-8.63361
▁break	-8.63365
▁N	-8.6351
▁serve	-8.6365
▁hour	-8.6384
▁Nor	-8.64033
▁present	-8.64956
▁sun	-8.65003
pe	-8.65021
▁2	-8.65079
▁dear	-8.65227
▁fool	-8.65567
ist	-8.65585
▁answered	-8.65699
vi	-8.65918
▁wise	-8.65958
▁SECOND	-8.66305
▁St	-8.6634
▁Our	-8.67049
]	-8.67053
▁fight	-8.67059
▁false	-8.67238
un	-8.67328
B	-8.67388
▁save	-8.67662
▁husband	-8.68107
▁1	-8.68211
▁until	-8.68382
▁servants	-8.68529
▁glory	-8.68955
▁RICHARD	-8.69146
na	-8.69178
▁taken	-8.69283
▁m	-8.69318
▁number	-8.69433
▁v	-8.69588
ha	-8.69621
▁service	-8.69919
D	-8.70258
em	-8.70392
▁st	-8.70467
▁praise	-8.70525
co	-8.70675
▁ear	-8.71152
▁reason	-8.71248
ine	-8.71309
▁Than	-8.71316
▁wilt	-8.71677
▁May	-8.71778
▁dwell	-8.72623
▁4	-8.7268
ian	-8.72864
▁fell	-8.73061
▁why	-8.73065
ite	-8.73098
▁twenty	-8.73267
▁toward	-8.73733
▁QUEEN	-8.73867
ma	-8.7397
▁season	-8.74507
▁please	-8.74938
▁commanded	-8.75038
▁gentle	-8.75048
C	-8.75177
ted	-8.75293
▁L	-8.75359
▁sound	-8.75566
▁country	-8.75693
▁does	-8.7594
ck	-8.76027
▁altar	-8.76521
▁book	-8.76596
▁nature	-8.76727
▁Give	-8.76767
▁sleep	-8.76783
▁whole	-8.76825
▁follow	-8.7708
▁cities	-8.77148
▁York	-8.77351
▁mean	-8.77423
ring	-8.77519
▁free	-8.77574
▁sit	-8.77662
▁kill	-8.77853
_	-8.77901
ia	-8.78063
▁above	-8.78189
▁DUKE	-8.78399
▁FALSTAFF	-8.78399
▁One	-8.7853
▁wicked	-8.78571
▁indeed	-8.78616
▁less	-8.78634
x	-8.78899
▁mercy	-8.79034
▁desire	-8.7907
▁kings	-8.79583
▁kingdom	-8.796
▁kind	-8.79698
▁rather	-8.79886
▁began	-8.80018
ure	-8.80094
▁silver	-8.801
me	-8.80243
▁deliver	-8.80533
▁certain	-8.80765
ow	-8.80815
▁run	-8.81084
▁Me	-8.81122
▁lost	-8.81502
▁em	-8.81819
▁times	-8.81864
▁Son	-8.81929
nce	-8.81931
▁Jordan	-8.82048
▁Master	-8.82053
ting	-8.82484
▁18	-8.82794
▁strength	-8.83092
ig	-8.83138
▁France	-8.8315
▁Are	-8.83223
▁en	-8.83233
▁thyself	-8.83368
▁draw	-8.83405
H	-8.83434
).	-8.83476
▁thir	-8.83794
▁ere	-8.83877
▁3	-8.83931
▁offer	-8.83948
op	-8.84032
▁get	-8.84081
▁open	-8.8422
▁Upon	-8.8427
▁ill	-8.84353
▁women	-8.84482
▁ho	-8.85231
▁bed	-8.85436
▁charge	-8.85511
▁mighty	-8.85862
V	-8.86095
▁feet	-8.86105
▁e	-8.86108
lu	-8.86175
ph	-8.86285
▁strange	-8.86605
▁command	-8.86794
▁Some	-8.86892
▁air	-8.87418
te	-8.87504
▁bound	-8.87684
our	-8.87715
▁De	-8.87795
▁Even	-8.87916
led	-8.87936
▁become	-8.88037
▁Heav	-8.88174
▁breath	-8.8822
▁alone	-8.88364
ve	-8.88371
▁laid	-8.88376
▁6	-8.88431
▁wind	-8.88521
▁deep	-8.88601
▁having	-8.8883
▁need	-8.88927
▁H	-8.89005
),	-8.89026
▁princes	-8.89076
▁hither	-8.8928
▁8	-8.89443
▁19	-8.89462
▁late	-8.89479
▁walk	-8.89626
▁six	-8.89703
▁Take	-8.89784
▁sp	-8.89954
▁knew	-8.90007
▁just	-8.90065
▁r	-8.90414
▁Saul	-8.90494
ut	-8.90587
▁believe	-8.90792
j	-8.90892
▁born	-8.90925
▁chief	-8.90961
▁foot	-8.90975
▁morning	-8.91001
▁hence	-8.91375
▁cry	-8.91433
▁purpose	-8.91437
▁care	-8.91486
▁fast	-8.91517
▁lo	-8.9166
▁music	-8.91727
▁dost	-8.91822
per	-8.91906
▁Though	-8.91934
▁grave	-8.92125
▁written	-8.92161
▁fellow	-8.92398
▁hard	-8.9246
▁priests	-8.92692
▁sing	-8.9274
▁Caesar	-8.92836
▁lead	-8.92852
▁youth	-8.92971
▁wrong	-8.93074
▁sake	-8.93153
▁enemies	-8.93376
▁c	-8.93433
U	-8.93443
be	-8.93495
▁10	-8.93624
▁its	-8.93838
▁bid	-8.93899
▁enough	-8.94118
▁sc	-8.94133
ary	-8.94263
▁hell	-8.94352
ER	-8.94561
▁money	-8.9461
▁boy	-8.94836
▁After	-8.94856
▁5	-8.94944
▁burnt	-8.95015
▁became	-8.95354
▁crown	-8.95364
N	-8.95559
ty	-8.9557
▁battle	-8.95631
▁age	-8.95809
▁midst	-8.95888
▁means	-8.96174
▁Rome	-8.96278
Y	-8.96523
▁sure	-8.96615
▁read	-8.96678
▁Whose	-8.96694
▁bread	-8.96787
▁destroy	-8.96963
▁Jacob	-8.97117
▁SIR	-8.97372
▁died	-8.97502
ton	-8.97516
▁living	-8.97627
▁Father	-8.97627
▁fruit	-8.97642
▁judge	-8.97708
▁mad	-8.97973
▁small	-8.97973
nd	-8.98412
▁turned	-8.98415
▁mount	-8.98656
▁HENRY	-8.98912
▁thoughts	-8.99094
▁meat	-8.99207
▁England	-8.99431
▁Aaron	-8.99692
▁soon	-8.9973
if	-8.9979
▁form	-8.99848
mp	-8.99932
▁knight	-9.00295
ns	-9.00527
ious	-9.0053
▁third	-9.00616
▁next	-9.0074
▁swear	-9.0074
▁fit	-9.00833
▁trust	-9.00863
▁beauty	-9.01004
▁queen	-9.01013
▁order	-9.01028
▁tears	-9.01464
▁congregation	-9.01534
ud	-9.01666
▁thank	-9.01717
▁worth	-9.01927
▁dis	-9.01964
▁makes	-9.02015
▁proud	-9.02075
▁Ha	-9.0229
ath	-9.02302
ites	-9.02333
▁Because	-9.0314
▁Would	-9.03144
red	-9.03484
▁oer	-9.0363
▁lords	-9.03639
▁person	-9.03725
ated	-9.03747
▁watch	-9.03953
▁madam	-9.03986
▁Hath	-9.04048
▁9	-9.04081
▁gate	-9.04157
▁received	-9.04198
▁company	-9.04226
les	-9.04246
▁wish	-9.04593
rs	-9.04642
▁sister	-9.04679
▁plain	-9.05048
▁door	-9.05128
▁comfort	-9.05189
▁Did	-9.052
▁wood	-9.05208
▁horse	-9.05226
▁ears	-9.05282
▁HAMLET	-9.05323
▁slain	-9.05599
▁month	-9.05817
▁ask	-9.05852
▁common	-9.05882
▁11	-9.05959
▁Prince	-9.06104
▁prove	-9.06145
▁labour	-9.06154
▁tabernacle	-9.06154
AN	-9.0647
▁nations	-9.06595
▁later	-9.06628
▁devil	-9.06652
▁film	-9.06712
▁wit	-9.06854
▁itself	-9.06992
▁Look	-9.06997
▁arms	-9.07106
▁judgment	-9.07225
▁change	-9.07295
▁MOS	-9.07297
▁base	-9.07381
▁teach	-9.07479
▁delivered	-9.07525
▁favour	-9.0762
▁rich	-9.0769
▁wisdom	-9.07837
ho	-9.07857
▁host	-9.07955
and	-9.07967
▁during	-9.08132
▁stone	-9.08167
▁con	-9.08297
▁course	-9.08981
▁spoken	-9.09041
men	-9.09085
▁sorrow	-9.09444
▁white	-9.09472
▁self	-9.09542
▁counsel	-9.09549
ial	-9.09554
ak	-9.09702
▁hate	-9.0975
ab	-9.09832
▁further	-9.09838
▁anger	-9.09891
▁wine	-9.0995
▁Was	-9.10086
▁15	-9.1013
▁foul	-9.10142
ver	-9.10151
▁Ye	-9.10364
▁business	-9.10416
▁gentleman	-9.1045
▁enter	-9.10552
▁feast	-9.10709
▁others	-9.10754
▁works	-9.10837
▁sat	-9.10859
▁used	-9.10941
▁Till	-9.11319
▁news	-9.11438
ron	-9.11498
▁album	-9.11584
▁Man	-9.11755
ni	-9.11935
▁act	-9.12376
▁receive	-9.12418
▁past	-9.12454
▁beast	-9.12544
he	-9.12864
▁manner	-9.12926
▁waters	-9.1301
▁kept	-9.13063
▁doubt	-9.13222
▁early	-9.13359
G	-9.13615
▁Wherefore	-9.13661
▁Like	-9.13668
nt	-9.13736
▁Make	-9.13827
▁wear	-9.1392
▁ma	-9.13934
▁See	-9.14194
▁12	-9.14304
▁16	-9.14615
▁mistress	-9.1487
om	-9.14996
▁honest	-9.15324
▁New	-9.15331
▁wall	-9.15397
▁daughters	-9.15404
▁CLOWN	-9.15477
_,	-9.15497
ward	-9.15887
▁heavens	-9.16036
▁mark	-9.16148
▁Le	-9.16234
▁pre	-9.16341
▁welcome	-9.16397
▁wilderness	-9.16397
▁shew	-9.16542
iah	-9.16693
▁sad	-9.16693
▁ha	-9.16731
▁hair	-9.16772
▁remember	-9.16917
▁several	-9.17355
▁Th	-9.17392
▁Ma	-9.17472
▁grief	-9.17492
▁lies	-9.17667
▁More	-9.17684
▁point	-9.17734
[*]	-9.17744
ard	-9.17756
ke	-9.17858
▁French	-9.1795
▁hearts	-9.18023
▁villain	-9.1809
▁multitude	-9.18263
▁Grace	-9.18268
▁dream	-9.18515
▁Queen	-9.18541
▁worship	-9.18577
▁arm	-9.18664
ot	-9.18731
▁bare	-9.18803
▁win	-9.1882
▁enemy	-9.18893
▁temple	-9.18893
▁built	-9.18896
▁black	-9.18897
▁fly	-9.19002
▁seem	-9.19159
▁low	-9.19195
▁righteousness	-9.19242
▁god	-9.19351
▁sick	-9.19527
▁wrath	-9.19527
▁7	-9.19701
▁pleasure	-9.19742
▁20	-9.19878
▁Love	-9.20068
▁able	-9.20118
ru	-9.20166
▁often	-9.20218
▁appear	-9.20286
▁burn	-9.20489
▁cousin	-9.20807
▁pardon	-9.20809
▁17	-9.20861
▁dare	-9.20969
▁Z	-9.21074
▁yea	-9.21078
▁lips	-9.21099
F	-9.21117
▁seed	-9.21204
▁tree	-9.21379
▁covenant	-9.21453
we	-9.21505
"	-9.21578
▁13	-9.21639
▁Solomon	-9.21778
▁thence	-9.21901
▁PRINCE	-9.22104
▁general	-9.22276
▁talk	-9.22315
▁fortune	-9.22373
▁glad	-9.22392
▁GOD	-9.2243
▁THE	-9.22512
▁Had	-9.22533
▁".	-9.22566
▁lose	-9.22673
▁Babylon	-9.22758
ber	-9.22768
▁worthy	-9.22947
▁blessed	-9.23094
▁coming	-9.23342
▁therein	-9.23548
▁Speak	-9.23748
▁knowledge	-9.23748
▁close	-9.23854
▁move	-9.23878
▁secret	-9.23884
tic	-9.23999
ick	-9.24097
ide	-9.2413
▁broken	-9.24139
▁kiss	-9.24223
▁whether	-9.24414
▁sacrifice	-9.24416
▁ship	-9.24536
▁prince	-9.24539
▁report	-9.24677
▁la	-9.24685
▁returned	-9.24698
▁reign	-9.24704
▁delight	-9.24757
▁top	-9.2476
AR	-9.24919
ag	-9.2494
▁letter	-9.24955
▁royal	-9.25071
▁weep	-9.25078
▁yourself	-9.25084
▁hosts	-9.25129
▁cold	-9.25337
▁didst	-9.25382
▁Jews	-9.25386
▁fled	-9.25433
▁ch	-9.25479
▁Un	-9.25574
▁fine	-9.25701
io	-9.25706
▁south	-9.25749
▁rock	-9.25769
▁II	-9.25909
▁content	-9.25997
▁yield	-9.26097
▁rose	-9.26119
▁d	-9.26165
▁Lo	-9.26196
ach	-9.26198
▁lest	-9.2622
W	-9.26242
▁pity	-9.2661
▁rise	-9.2666
▁witness	-9.26713
▁game	-9.26819
▁LADY	-9.27121
ell	-9.27222
▁mo	-9.27348
▁beseech	-9.27465
▁14	-9.27532
▁Most	-9.27549
▁Ho	-9.27567
ill	-9.27719
▁Their	-9.27974
ct	-9.28038
▁iniquity	-9.28156
▁Say	-9.28282
▁write	-9.2839
▁Before	-9.28503
ning	-9.28549
▁Can	-9.28562
▁along	-9.28833
▁least	-9.28854
▁BRUTUS	-9.29201
▁English	-9.29201
▁Con	-9.29455
▁co	-9.29556
▁tr	-9.29577
one	-9.29588
mon	-9.29713
▁gathered	-9.29896
▁heavy	-9.2993
▁song	-9.29981
▁ways	-9.30152
▁curse	-9.30504
ave	-9.30523
▁Pharaoh	-9.30612
▁red	-9.30639
▁prophet	-9.30724
▁trouble	-9.30908
▁cometh	-9.31081
ned	-9.31087
for	-9.31102
▁met	-9.31153
▁Out	-9.31182
▁sense	-9.31242
▁lives	-9.3127
▁throne	-9.31326
▁throughout	-9.31357
ile	-9.31445
bo	-9.3154
▁pay	-9.31615
ff	-9.31714
▁La	-9.31773
▁office	-9.31939
▁fat	-9.3202
▁either	-9.32043
▁Henry	-9.32044
▁Ah	-9.32079
▁won	-9.32141
▁pure	-9.32468
time	-9.32491
▁touch	-9.32745
▁OTHELLO	-9.32767
▁presence	-9.3313
▁pro	-9.33165
▁angel	-9.33305
▁Yes	-9.33368
▁happy	-9.33495
▁due	-9.33548
▁led	-9.336
▁says	-9.33603
▁sign	-9.33683
▁line	-9.33718
▁loves	-9.33768
▁IAGO	-9.33862
▁vain	-9.33924
▁BARABAS	-9.34229
▁yourselves	-9.34229
▁feed	-9.34563
▁record	-9.34569
▁east	-9.3461
ey	-9.34644
▁cried	-9.347
the	-9.34853
▁stones	-9.34954
▁Joseph	-9.34969
▁short	-9.3515
▁question	-9.3534
hi	-9.35469
▁ready	-9.35566
▁want	-9.35619
▁large	-9.35644
▁dark	-9.35675
ng	-9.35677
▁MISTRESS	-9.35713
▁behind	-9.35714
▁sheep	-9.3572
ub	-9.35824
▁car	-9.35837
▁haste	-9.3584
▁Hear	-9.3584
▁Abraham	-9.36088
▁worse	-9.36088
▁Ja	-9.36109
▁held	-9.36359
▁Am	-9.36385
▁Were	-9.36392
▁going	-9.36531
▁bold	-9.36658
ac	-9.36697
▁neighbour	-9.36841
go	-9.37021
ors	-9.37021
▁Levites	-9.37057
ta	-9.37094
._	-9.37368
▁sh	-9.37489
ain	-9.37514
▁righteous	-9.37567
▁looks	-9.37593
▁family	-9.376
pa	-9.37665
▁places	-9.37763
▁force	-9.37878
▁knave	-9.37982
▁hang	-9.37993
▁offerings	-9.38026
▁tender	-9.38062
▁Peter	-9.38071
up	-9.38083
▁Jo	-9.38146
ld	-9.38255
▁tribe	-9.38265
▁post	-9.38321
▁build	-9.38366
▁bow	-9.38373
▁lack	-9.38385
▁oil	-9.38605
mo	-9.38615
▁few	-9.38778
▁Pray	-9.38786
▁grow	-9.38934
16	-9.3895
▁twelve	-9.39136
▁Ne	-9.39153
▁maid	-9.39425
▁ANTONY	-9.39523
▁plague	-9.39523
▁&	-9.39524
▁Since	-9.39536
ris	-9.39738
▁wherein	-9.39901
,000	-9.39913
▁GLOUCESTER	-9.39913
▁minister	-9.39913
▁double	-9.39914
▁inheritance	-9.3992
▁bloody	-9.40314
▁wait	-9.40328
▁wide	-9.40338
ON	-9.40356
▁hide	-9.40464
▁north	-9.40471
▁greater	-9.40566
▁camp	-9.40704
ier	-9.40709
▁disciples	-9.40944
▁f	-9.41006
▁imp	-9.41008
▁Philistines	-9.41363
ical	-9.41382
▁team	-9.41485
▁hot	-9.41551
▁per	-9.41635
ca	-9.41699
▁star	-9.41738
▁church	-9.41768
▁public	-9.41839
▁darkness	-9.41923
▁issue	-9.42123
▁bless	-9.42421
▁rain	-9.42695
▁ex	-9.42749
va	-9.42765
▁vi	-9.43068
▁slew	-9.43081
▁room	-9.43095
▁neer	-9.43153
ts	-9.43199
▁speech	-9.43371
▁Such	-9.43527
▁Yea	-9.43659
US	-9.43691
▁captain	-9.43896
▁river	-9.43897
like	-9.43932
▁fail	-9.43951
ew	-9.43975
▁suit	-9.44106
son	-9.44202
▁deal	-9.44301
▁concerning	-9.44437
▁heads	-9.44531
▁wild	-9.4471
▁hid	-9.4494
ship	-9.45022
▁bright	-9.45084
▁Rachel	-9.45114
▁gracious	-9.45117
▁view	-9.45122
▁Co	-9.45264
ius	-9.45313
▁depart	-9.4552
▁scorn	-9.45531
▁respect	-9.45537
▁fill	-9.45553
bb	-9.45555
▁case	-9.45575
no	-9.45784
▁single	-9.45817
▁GENTLEMAN	-9.45938
▁afraid	-9.45938
▁human	-9.45958
▁cover	-9.4602
▁revenge	-9.46131
▁former	-9.46253
▁smote	-9.46353
▁fault	-9.46412
▁commandment	-9.46451
▁cur	-9.46466
▁World	-9.4677
▁gather	-9.46779
▁suffer	-9.46818
▁Je	-9.46823
▁Tell	-9.46836
▁prison	-9.46975
qui	-9.47006
▁straight	-9.47183
▁Earth	-9.47189
▁weak	-9.47238
▁noise	-9.47268
▁oath	-9.47301
▁gates	-9.47362
▁cl	-9.47459
▁prophets	-9.47476
oth	-9.4756
▁Paul	-9.47627
▁moon	-9.47707
▁beat	-9.47727
▁perfect	-9.47942
▁dwelt	-9.48031
▁Alas	-9.48069
end	-9.4836
▁departed	-9.4845
▁shadow	-9.48454
▁border	-9.48454
▁wonder	-9.48456
▁marry	-9.48474
▁surely	-9.48784
▁promise	-9.4885
▁speed	-9.48875
▁carried	-9.4888
iv	-9.48903
▁carry	-9.4891
▁understand	-9.48948
▁title	-9.49308
▁morrow	-9.49311
▁shape	-9.49344
out	-9.49415
▁Great	-9.49737
▁da	-9.4976
▁Ba	-9.49844
▁seat	-9.49934
ight	-9.49941
lt	-9.49944
ENT	-9.50044
Footnote	-9.50167
▁loved	-9.50205
▁Al	-9.50529
▁murder	-9.50592
▁PAGE	-9.506
▁ark	-9.50608
▁25	-9.50692
▁Se	-9.50768
▁Ra	-9.50798
LE	-9.5081
▁li	-9.50828
▁Art	-9.50854
▁bad	-9.50877
▁moved	-9.51015
▁guard	-9.51046
▁Antony	-9.51472
ign	-9.5161
▁town	-9.51687
▁woe	-9.5182
▁confess	-9.51847
▁uncle	-9.51857
▁almost	-9.51911
▁Richard	-9.51912
ea	-9.52124
▁sins	-9.5213
▁brave	-9.52154
▁po	-9.52252
▁nation	-9.52341
ice	-9.52445
▁canst	-9.52521
all	-9.52624
▁London	-9.52793
▁Lady	-9.52801
▁rage	-9.52832
▁sought	-9.52841
▁pain	-9.52962
▁soft	-9.53017
do	-9.53028
12	-9.53071
▁following	-9.53111
17	-9.53191
▁hurt	-9.53241
▁begat	-9.5326
ft	-9.53367
▁Spirit	-9.53448
▁passed	-9.53505
den	-9.53549
▁list	-9.53778
▁deed	-9.54091
▁Joshua	-9.54133
▁parts	-9.5416
os	-9.54383
rd	-9.54461
▁looked	-9.5456
▁VOLP	-9.54583
▁already	-9.54583
▁patience	-9.54583
▁cross	-9.54583
▁Edward	-9.54587
▁pride	-9.54589
ip	-9.54647
▁character	-9.54823
ions	-9.54841
▁Bo	-9.5486
▁thither	-9.55036
▁harm	-9.55038
▁Dis	-9.55043
▁army	-9.55256
▁rejoice	-9.55379
▁gain	-9.55396
▁blind	-9.5549
▁di	-9.55523
ran	-9.55556
▁trees	-9.55601
▁com	-9.55707
▁warrant	-9.55947
▁24	-9.56045
land	-9.56097
▁Roman	-9.56207
▁J	-9.56209
ster	-9.56272
▁lion	-9.56353
IN	-9.56362
▁loss	-9.56382
▁married	-9.56406
▁Farewell	-9.56406
▁bosom	-9.56414
▁perish	-9.56431
▁thirty	-9.56433
are	-9.56498
▁main	-9.56548
▁golden	-9.56613
day	-9.56644
▁virtue	-9.56688
▁chamber	-9.56701
unt	-9.571
▁image	-9.57164
▁sport	-9.57342
ily	-9.57373
▁souls	-9.57466
RE	-9.57522
rt	-9.57557
▁War	-9.57737
▁port	-9.57746
▁En	-9.57762
▁United	-9.57795
▁spoil	-9.57851
▁named	-9.57964
ied	-9.58061
▁length	-9.58262
▁merry	-9.58264
▁III	-9.58362
▁appointed	-9.5838
▁rule	-9.58502
▁destroyed	-9.58547
ze	-9.58672
▁Wheeler	-9.58731
▁mortal	-9.58731
▁taste	-9.58765
▁30	-9.58811
▁While	-9.58917
rie	-9.58932
ES	-9.58943
.--	-9.59117
▁cubits	-9.59175
▁followed	-9.59182
▁TIMON	-9.59203
▁flood	-9.59203
▁Know	-9.59212
▁U	-9.59251
▁inhabitants	-9.59521
▁k	-9.59603
▁marriage	-9.59677
▁strike	-9.59677
▁Should	-9.59677
▁equal	-9.59677
▁shake	-9.59685
▁chance	-9.59703
▁sore	-9.59892
▁feel	-9.60006
▁slave	-9.60153
▁neck	-9.60161
▁justice	-9.6017
▁dust	-9.60256
▁Away	-9.60292
▁thanks	-9.60447
▁cloud	-9.60536
▁%	-9.60631
▁YORK	-9.60631
▁clear	-9.60632
▁remain	-9.60637
▁Christian	-9.60679
tor	-9.60689
▁forty	-9.60892
tro	-9.60941
▁corn	-9.60991
▁MACBETH	-9.61112
▁something	-9.61115
▁played	-9.61536
▁CLEOPATRA	-9.61595
▁shut	-9.61613
▁mountains	-9.61654
▁needs	-9.61729
▁mis	-9.61847
▁soldiers	-9.6185
com	-9.61966
▁spread	-9.62086
▁possess	-9.62088
pt	-9.62164
▁le	-9.62246
▁h	-9.62253
ind	-9.62515
▁families	-9.62569
▁although	-9.62569
▁unclean	-9.62589
▁Marry	-9.62591
▁foolish	-9.62624
ble	-9.62639
▁clean	-9.62862
▁mountain	-9.63016
▁SYRACUSE	-9.63059
▁fifty	-9.63059
▁perform	-9.63128
▁knows	-9.63206
▁stranger	-9.6328
19	-9.63333
▁lust	-9.63398
ress	-9.63431
▁choose	-9.63551
▁fresh	-9.63551
▁First	-9.63552
▁Po	-9.63591
▁Against	-9.63593
▁El	-9.63684
▁bones	-9.63782
ound	-9.63889
so	-9.63939
lic	-9.63955
▁laugh	-9.64023
▁Faustus	-9.64046
▁ROSALIND	-9.64046
▁forget	-9.64053
▁loud	-9.64072
▁Theres	-9.64085
15	-9.64099
▁consider	-9.64134
▁mock	-9.64163
▁tent	-9.64234
▁alive	-9.64464
▁offered	-9.64466
▁British	-9.64544
▁Warwick	-9.64544
▁Peace	-9.64546
▁sworn	-9.64547
▁Sa	-9.64591
ise	-9.64753
▁MARGARET	-9.65044
▁MESSENGER	-9.65044
▁valiant	-9.65044
▁learn	-9.65281
▁increase	-9.65486
▁Sp	-9.65507
▁Whom	-9.6552
▁fashion	-9.65546
▁including	-9.65546
▁effect	-9.65569
▁heir	-9.6557
▁Stand	-9.65579
▁note	-9.65713
▁Te	-9.65771
bi	-9.6588
▁Mo	-9.6599
▁eight	-9.66035
▁breast	-9.66051
▁taught	-9.66066
▁hours	-9.66085
▁l	-9.66102
▁buy	-9.66112
cy	-9.66265
▁deeds	-9.6634
▁ring	-9.66451
▁goes	-9.66459
▁CITIZEN	-9.66559
▁SERVANT	-9.66559
▁Madam	-9.66559
▁search	-9.6656
▁beasts	-9.6696
▁understanding	-9.66992
di	-9.66996
▁23	-9.67031
▁Sha	-9.67039
▁arose	-9.67071
▁wives	-9.67072
▁piece	-9.67113
▁dog	-9.67176
▁ran	-9.6718
▁bar	-9.67499
▁palace	-9.67582
▁storm	-9.67583
▁farewell	-9.67583
ny	-9.67625
▁tale	-9.67699
au	-9.67712
ray	-9.67993
▁measure	-9.68095
▁THIRD	-9.68098
▁approach	-9.68098
▁wrote	-9.68098
▁Ro	-9.68171
▁vile	-9.68271
ments	-9.68374
▁faithful	-9.68482
▁spirits	-9.68503
▁LEAR	-9.68619
mer	-9.6862
▁pale	-9.68642
▁Jew	-9.68726
."	-9.68882
▁wings	-9.69032
▁longer	-9.69107
▁filled	-9.69132
▁conscience	-9.69137
▁sentence	-9.69137
ok	-9.69343
que	-9.69407
▁FAUSTUS	-9.6966
▁entreat	-9.6966
▁green	-9.69661
▁slay	-9.69671
ay	-9.69946
▁opened	-9.70096
▁sharp	-9.70188
ue	-9.70343
▁blow	-9.70475
▁wash	-9.70625
ities	-9.70704
▁story	-9.70712
ort	-9.70732
▁gentlemen	-9.70745
▁spring	-9.70762
▁visit	-9.70795
▁quickly	-9.70886
▁attend	-9.70988
▁pieces	-9.71224
▁/	-9.71247
▁White	-9.71247
▁buried	-9.71247
▁X	-9.71276
▁vessels	-9.71367
:13	-9.71448
▁sub	-9.71504
▁passion	-9.71745
▁herself	-9.71782
▁widow	-9.71782
▁birth	-9.71782
▁fetch	-9.71782
▁offence	-9.71783
▁duty	-9.71795
▁subject	-9.71875
▁Hell	-9.71902
▁Ar	-9.72006
▁gra	-9.72058
nes	-9.72094
▁forward	-9.72229
▁According	-9.7232
▁Galveston	-9.7232
▁WARWICK	-9.7232
▁FORD	-9.72323
▁stop	-9.72345
▁dry	-9.72363
▁pen	-9.72417
▁Pro	-9.7252
▁seems	-9.72738
ash	-9.72809
▁Jonson	-9.7286
▁series	-9.72861
▁asked	-9.73135
ator	-9.73194
▁$	-9.73404
ons	-9.73411
▁thick	-9.73477
▁tomorrow	-9.73507
▁pluck	-9.73538
▁flow	-9.73736
▁sold	-9.73763
[	-9.73881
▁Ephraim	-9.7395
▁DON	-9.73976
▁Must	-9.74021
▁Har	-9.74053
▁reigned	-9.74071
▁Heaven	-9.74077
▁horses	-9.74131
▁believed	-9.74146
▁utter	-9.74301
ding	-9.7435
▁tonight	-9.74378
▁elders	-9.74395
▁danger	-9.74481
▁Cardinal	-9.745
▁JOHN	-9.745
▁fierce	-9.745
▁precious	-9.745
▁valley	-9.745
way	-9.74616
:11	-9.747
vo	-9.74784
▁Holy	-9.74811
▁ANTIPHOLUS	-9.75052
▁advantage	-9.75052
▁majesty	-9.75052
▁steal	-9.75053
▁beginning	-9.75062
▁iron	-9.75094
▁reward	-9.7512
ual	-9.75124
row	-9.75166
▁pit	-9.75185
▁26	-9.75234
▁begin	-9.75288
▁masters	-9.75379
▁always	-9.75437
▁German	-9.75454
▁burden	-9.75608
▁wealth	-9.7561
▁humble	-9.75612
ism	-9.75657
▁possession	-9.75688
ler	-9.75724
▁obey	-9.75759
ai	-9.75875
▁walls	-9.75954
▁Pa	-9.75982
▁Gloucester	-9.76166
▁deny	-9.76284
EN	-9.76508
▁bo	-9.76691
▁wherefore	-9.76729
ets	-9.76812
fe	-9.76849
▁action	-9.76855
▁Car	-9.77216
▁add	-9.77227
▁wrought	-9.77293
▁Sweet	-9.77293
▁James	-9.77294
▁Under	-9.773
▁cease	-9.77369
tri	-9.77469
▁Two	-9.7752
▁21	-9.77529
ex	-9.77578
▁ca	-9.77784
▁waste	-9.77811
▁killed	-9.77829
▁Mi	-9.77846
▁abroad	-9.77861
▁summer	-9.77867
▁request	-9.77871
▁loose	-9.77872
▁letters	-9.77884
▁rare	-9.77888
▁health	-9.77905
uff	-9.77928
▁soldier	-9.78141
▁nigh	-9.78195
▁names	-9.78227
▁Call	-9.78263
▁match	-9.78327
▁des	-9.78376
▁building	-9.78395
▁EMILIA	-9.78433
▁angry	-9.78434
▁excellent	-9.78436
ake	-9.78492
ner	-9.78522
▁28	-9.78556
▁du	-9.78572
▁wound	-9.78623
ating	-9.78788
▁commandments	-9.78944
▁bitter	-9.78977
▁Brutus	-9.79008
▁occasion	-9.79008
▁humour	-9.79012
▁root	-9.79014
▁Both	-9.79163
▁design	-9.79183
▁mar	-9.79246
▁safe	-9.79391
▁spoke	-9.79459
▁repent	-9.79581
▁Church	-9.79586
▁journey	-9.79586
▁swift	-9.79586
▁food	-9.79586
▁truly	-9.79586
▁defend	-9.79592
,"	-9.79617
▁presently	-9.79621
IT	-9.79714
▁ba	-9.79812
▁lifted	-9.79949
▁Arm	-9.80076
▁success	-9.80112
▁ANTONIO	-9.80167
▁poison	-9.80167
▁sabbath	-9.80167
▁Moab	-9.80167
▁dance	-9.8022
ally	-9.80426
ever	-9.80548
side	-9.80611
▁got	-9.8067
▁etc	-9.80675
▁whence	-9.80719
▁sovereign	-9.80738
▁Benjamin	-9.80752
▁incense	-9.80752
▁stars	-9.8082
ins	-9.81053
▁Mine	-9.81081
ild	-9.81108
▁faint	-9.81197
▁bond	-9.8121
ries	-9.81229
▁EDWARD	-9.8134
▁ourselves	-9.8134
▁shield	-9.8134
RA	-9.81352
▁sail	-9.81435
▁honourable	-9.81527
▁Ca	-9.81867
K	-9.8191
▁today	-9.81923
▁account	-9.81932
▁Unto	-9.81968
▁prayer	-9.82073
dy	-9.82091
▁served	-9.82115
▁withal	-9.82117
The	-9.82141
.]	-9.82192
▁gift	-9.82288
▁try	-9.82417
▁seeing	-9.8243
▁Mar	-9.82465
▁Per	-9.82476
▁ancient	-9.82527
▁governor	-9.82582
▁beside	-9.82864
▁Doth	-9.83003
▁wast	-9.83093
▁Bu	-9.83104
▁Another	-9.83126
▁divine	-9.83126
▁salvation	-9.83126
▁described	-9.83288
▁created	-9.83393
▁Sea	-9.83559
▁Being	-9.83593
▁whither	-9.83727
▁DESDEMONA	-9.83728
▁FRIAR	-9.83728
▁ROMEO	-9.83728
▁fought	-9.83731
▁making	-9.83734
▁flight	-9.83734
▁drew	-9.83742
▁0	-9.83748
▁coward	-9.83749
▁35	-9.8385
▁Whats	-9.83945
▁MENENIUS	-9.84334
▁quiet	-9.84346
▁million	-9.84351
▁stands	-9.84482
▁quick	-9.84698
,[*]	-9.84735
▁sort	-9.8475
res	-9.84751
▁DROMIO	-9.84944
▁space	-9.84955
▁woo	-9.84973
▁-	-9.85009
▁island	-9.85176
▁coin	-9.85389
ction	-9.85523
▁cap	-9.85538
▁forbid	-9.85563
▁cattle	-9.85564
▁Enter	-9.85589
▁stir	-9.85602
▁vow	-9.8563
▁cup	-9.85635
▁throw	-9.85936
ible	-9.85941
▁hill	-9.8601
ture	-9.86047
▁CLAUDIO	-9.86175
▁Faith	-9.86175
▁profit	-9.86175
▁ships	-9.862
▁Death	-9.86208
▁High	-9.86407
▁Into	-9.86609
▁cr	-9.8665
▁male	-9.86697
act	-9.8673
hood	-9.86743
▁desolate	-9.86796
▁Saint	-9.86796
▁history	-9.86798
▁table	-9.86846
▁Zion	-9.86854
▁area	-9.86975
▁wars	-9.86995
▁mi	-9.87004
▁castle	-9.87064
▁writing	-9.87091
▁start	-9.87143
▁released	-9.87236
▁nine	-9.87416
▁BEROWNE	-9.87421
▁private	-9.87421
▁heathen	-9.87425
▁paper	-9.87501
tre	-9.87527
▁garments	-9.87631
▁entered	-9.87675
▁weight	-9.87888
▁raise	-9.8797
▁prepared	-9.88046
▁enjoy	-9.8805
▁PETRUCHIO	-9.8805
▁beloved	-9.88051
▁goodly	-9.8806
▁Ross	-9.88101
▁whatsoever	-9.88114
▁clothes	-9.88177
▁site	-9.88263
▁established	-9.883
▁mourn	-9.88328
▁seventh	-9.88359
ition	-9.8838
▁traitor	-9.88558
▁learned	-9.88564
▁valour	-9.88683
▁skin	-9.88715
▁fury	-9.88738
▁chosen	-9.88752
▁jest	-9.88843
▁States	-9.89226
▁games	-9.89256
▁aside	-9.89283
▁league	-9.8932
▁whereof	-9.89355
▁shine	-9.89359
▁Hector	-9.89398
▁Mark	-9.89402
ric	-9.89455
cr	-9.89455
ug	-9.89463
▁Ab	-9.89523
▁pe	-9.89603
iel	-9.89615
▁prey	-9.89638
AL	-9.89875
▁Qu	-9.89943
▁commend	-9.89961
▁sanctuary	-9.89961
▁struck	-9.89961
▁worst	-9.89961
▁*	-9.89963
▁fame	-9.89999
rous	-9.90042
▁29	-9.9007
▁brothers	-9.90079
OR	-9.90181
ore	-9.90212
▁sa	-9.90442
full	-9.9054
▁term	-9.90543
▁colour	-9.90547
▁Black	-9.90576
▁VALENTINE	-9.90606
▁choice	-9.90606
▁Moreover	-9.90611
▁Li	-9.90613
▁Ex	-9.90685
▁west	-9.90857
▁Lu	-9.91123
▁fools	-9.91163
▁par	-9.91186
▁CRESSIDA	-9.91255
▁bullock	-9.91257
▁However	-9.91315
▁endure	-9.91344
▁claim	-9.91496
▁regard	-9.91496
▁lift	-9.9151
▁grant	-9.91527
▁count	-9.91592
▁22	-9.91604
ec	-9.91859
▁commit	-9.91892
▁PANDARUS	-9.91909
▁Polish	-9.91909
▁TOBY	-9.91909
▁Through	-9.91909
▁result	-9.91909
▁Nathan	-9.91909
▁consent	-9.9191
▁scene	-9.91921
▁chain	-9.91926
ga	-9.92012
tle	-9.92199
ING	-9.9221
gen	-9.92564
▁reproach	-9.92567
▁example	-9.92567
▁destruction	-9.92572
▁Those	-9.92572
qua	-9.92582
▁store	-9.92599
rac	-9.92665
CE	-9.92703
▁lot	-9.92743
▁heat	-9.9284
▁offend	-9.92897
tion	-9.93008
▁shows	-9.93198
▁PROTEUS	-9.93229
▁group	-9.93229
▁Amen	-9.93251
▁ought	-9.93252
▁tower	-9.93377
ize	-9.93577
▁flatter	-9.93753
▁Dan	-9.93818
▁caused	-9.93849
▁CORIOLANUS	-9.93896
▁Jeremiah	-9.93896
▁Mistress	-9.93896
▁opinion	-9.93896
▁brass	-9.93896
▁blame	-9.93896
▁Although	-9.93897
▁ruin	-9.93897
▁spent	-9.93958
▁American	-9.93969
▁()	-9.94037
▁prepare	-9.94076
▁foe	-9.94125
▁perceive	-9.94348
let	-9.94409
▁Ch	-9.94451
▁blessing	-9.94497
▁Kings	-9.94524
tis	-9.94541
▁Samuel	-9.94567
▁portion	-9.9469
▁greatest	-9.94726
ED	-9.94867
▁ta	-9.95211
▁Townsend	-9.95243
▁cunning	-9.95243
▁glorious	-9.95243
▁natural	-9.95243
▁pretty	-9.95243
▁anything	-9.95246
▁language	-9.9525
▁31	-9.95254
▁During	-9.95256
▁inter	-9.95663
▁faire	-9.95875
▁Manasseh	-9.95923
▁military	-9.95923
▁desert	-9.95924
▁ashamed	-9.95924
▁Fear	-9.95926
▁HELENA	-9.95928
▁guide	-9.95931
▁liege	-9.96014
▁owe	-9.96033
▁appeared	-9.96108
▁North	-9.96225
use	-9.96294
▁beard	-9.96452
hu	-9.96472
▁virgin	-9.96584
▁womb	-9.96608
▁stead	-9.96608
▁trade	-9.96618
▁Fair	-9.9662
▁trumpet	-9.96644
▁grass	-9.96663
▁40	-9.96726
▁32	-9.96815
▁sum	-9.9685
▁support	-9.96885
▁band	-9.96984
▁rank	-9.97078
ix	-9.97096
▁removed	-9.97104
▁lived	-9.97265
▁saved	-9.97277
▁BUCKINGHAM	-9.97297
▁Nicole	-9.97297
▁brief	-9.97297
▁study	-9.97297
▁loving	-9.97298
▁felt	-9.97303
▁Joab	-9.97317
▁flock	-9.97351
▁burning	-9.97377
▁officers	-9.97435
▁poet	-9.97479
▁forgive	-9.97575
▁riches	-9.97659
▁fourth	-9.977
▁Sc	-9.97813
▁considered	-9.97868
form	-9.97913
▁pour	-9.9797
▁Assyria	-9.97992
▁CAESAR	-9.97992
▁beg	-9.97997
▁position	-9.97999
▁slow	-9.98019
▁school	-9.98055
▁fortunes	-9.98114
▁seal	-9.98206
rate	-9.98252
▁plant	-9.98583
by	-9.98599
▁LUCIUS	-9.98691
▁Majesty	-9.98691
▁Neither	-9.98691
▁PAROLLES	-9.98691
▁beyond	-9.98691
▁period	-9.98691
▁April	-9.98695
▁motion	-9.98701
▁appearance	-9.98732
▁Thir	-9.98745
▁statutes	-9.98752
▁generation	-9.98773
rai	-9.98777
ging	-9.9907
▁covered	-9.99384
▁trespass	-9.99395
▁girl	-9.99397
▁vision	-9.99399
▁solemn	-9.99403
▁Hold	-9.99426
▁drive	-9.99487
▁creature	-9.99489
▁x	-9.99848
▁ALL	-9.99879
▁EPHESUS	-10.001
▁Finkelstein	-10.001
▁SHALLOW	-10.001
▁SUFFOLK	-10.001
▁prithee	-10.001
▁recover	-10.001
▁awake	-10.0011
▁Never	-10.0015
▁spare	-10.0015
▁upright	-10.0023
▁published	-10.0032
▁shewed	-10.0035
▁fort	-10.0035
▁reach	-10.0049
▁cost	-10.0049
▁Bar	-10.0061
▁continue	-10.0066
▁drawn	-10.0071
▁abide	-10.0074
▁patient	-10.0082
▁August	-10.0082
▁PALAMON	-10.0082
▁captivity	-10.0082
▁silence	-10.0082
▁simple	-10.0082
▁smite	-10.0082
▁ease	-10.0082
▁daily	-10.0083
▁hunt	-10.0084
▁weary	-10.0095
▁Bring	-10.0096
▁ed	-10.01
LY	-10.0101
ves	-10.0102
▁hearken	-10.0113
ized	-10.0114
▁real	-10.0115
▁Men	-10.0128
▁particular	-10.0134
X	-10.0146
▁CASSIUS	-10.0154
▁monument	-10.0154
▁quarrel	-10.0154
▁skill	-10.0154
▁beggar	-10.0154
▁edge	-10.0156
▁winter	-10.016
▁wing	-10.0164
▁months	-10.0174
▁heavenly	-10.0191
tie	-10.0217
▁shore	-10.0227
▁committed	-10.0228
▁dull	-10.0231
▁March	-10.0233
▁numbered	-10.0235
▁wickedness	-10.024
▁lend	-10.024
▁belong	-10.0262
▁fish	-10.0294
▁captains	-10.0298
▁Greek	-10.0299
▁October	-10.0299
▁disease	-10.0299
▁everlasting	-10.0299
▁government	-10.0301
▁press	-10.0312
ient	-10.0321
▁gives	-10.0339
▁walked	-10.0353
▁prayers	-10.037
▁TITUS	-10.0373
▁Isaac	-10.0373
▁plot	-10.0373
▁project	-10.0373
▁rough	-10.0374
▁towards	-10.0382
▁march	-10.0385
▁34	-10.0387
▁tear	-10.0393
iness	-10.0404
▁attempt	-10.0406
▁drop	-10.0407
▁members	-10.0421
born	-10.0422
▁IV	-10.0444
▁BENEDICK	-10.0447
▁PEDRO	-10.0447
▁PORTIA	-10.0447
▁Zhou	-10.0447
▁style	-10.0447
▁different	-10.0447
▁Night	-10.045
▁whosoever	-10.0452
▁def	-10.0458
▁lordship	-10.0461
▁West	-10.047
▁goeth	-10.0475
▁proceed	-10.0486
▁around	-10.0502
iz	-10.0504
oo	-10.0518
▁AVOC	-10.0522
▁Fortune	-10.0522
▁Sarnia	-10.0522
▁courage	-10.0522
▁female	-10.0522
▁Sun	-10.0528
▁Cha	-10.0532
▁PER	-10.0536
IAN	-10.0539
▁coast	-10.0544
▁street	-10.0544
med	-10.0548
▁gan	-10.0554
▁Romeo	-10.0554
gar	-10.056
AS	-10.0571
▁dread	-10.0575
▁pleased	-10.0579
▁original	-10.0579
▁forest	-10.0588
▁houses	-10.0596
▁ARCITE	-10.0597
▁TROILUS	-10.0597
▁credit	-10.0597
▁betray	-10.0597
▁shot	-10.0599
▁trick	-10.06
▁flame	-10.0602
▁raised	-10.0606
▁Su	-10.0608
da	-10.0608
▁passage	-10.0614
▁forces	-10.0626
▁devour	-10.0631
▁divided	-10.0639
▁quite	-10.0644
▁Gentiles	-10.0672
▁degree	-10.0672
▁influence	-10.0672
▁possible	-10.0672
▁special	-10.0672
▁AND	-10.0675
▁hit	-10.0678
air	-10.0684
▁proper	-10.0686
▁proof	-10.0692
ram	-10.0696
▁goodness	-10.0704
▁hearing	-10.0705
▁Y	-10.0724
▁streets	-10.0726
▁except	-10.073
▁col	-10.0735
▁author	-10.0746
▁travel	-10.0748
▁Jonathan	-10.0749
▁countenance	-10.0749
▁substance	-10.0749
▁treason	-10.0749
▁slaughter	-10.0749
▁demand	-10.0749
▁class	-10.075
▁scarce	-10.075
▁bought	-10.0759
▁Blessed	-10.0762
▁Baal	-10.0764
▁borne	-10.0766
▁Dr	-10.0769
▁arise	-10.0772
▁horns	-10.0774
▁flee	-10.0774
▁fearful	-10.0785
right	-10.079
▁included	-10.0801
▁broke	-10.0819
▁ISABELLA	-10.0826
▁eternal	-10.0826
▁remembrance	-10.0826
▁staff	-10.0826
▁smell	-10.0826
▁thrust	-10.0826
▁contain	-10.0826
▁duke	-10.0827
▁century	-10.0827
▁Jack	-10.0827
▁folly	-10.083
▁Timon	-10.0833
light	-10.0833
▁writ	-10.084
▁maketh	-10.0859
▁27	-10.088
▁JULIET	-10.0903
▁region	-10.0903
▁Nature	-10.0904
▁lament	-10.091
▁terms	-10.0914
▁Hast	-10.0914
▁charm	-10.0916
▁Egyptians	-10.0929
▁lamb	-10.0934
aunt	-10.0935
▁angels	-10.0945
▁train	-10.0948
▁ver	-10.0956
lie	-10.0963
▁Eli	-10.0975
ified	-10.0981
▁Hezekiah	-10.0981
▁practice	-10.0981
▁stream	-10.0981
▁spend	-10.0984
▁catch	-10.0987
▁judgments	-10.0995
▁faces	-10.1001
▁eaten	-10.1021
nder	-10.1029
▁doors	-10.1048
▁remained	-10.1048
▁w	-10.1059
▁career	-10.1059
▁episode	-10.106
▁groan	-10.106
▁pleasant	-10.106
▁honey	-10.106
▁object	-10.106
▁teeth	-10.106
▁grew	-10.1061
▁ladies	-10.1062
▁Fey	-10.1069
▁warm	-10.1071
▁require	-10.1083
▁Lest	-10.1089
ised	-10.1093
▁fo	-10.1094
▁oft	-10.1114
▁giveth	-10.1117
▁sometimes	-10.1118
▁wake	-10.1121
▁wont	-10.1122
ink	-10.1125
▁exp	-10.1128
▁LEONTES	-10.1139
▁PISTOL	-10.1139
▁custom	-10.1139
▁drum	-10.1139
▁preserve	-10.1139
▁garden	-10.114
cc	-10.1147
▁beheld	-10.1152
▁role	-10.1155
bed	-10.1155
▁trans	-10.1157
▁release	-10.1164
▁wretched	-10.1169
▁Hor	-10.117
▁ram	-10.1195
▁wouldst	-10.1219
▁review	-10.1219
▁species	-10.1219
▁Wilt	-10.122
▁Within	-10.122
▁rod	-10.1236
▁linen	-10.125
▁height	-10.125
uck	-10.1266
place	-10.1295
▁treasure	-10.13
▁Cassio	-10.13
▁Samaria	-10.13
▁Signior	-10.13
▁knock	-10.13
▁innocent	-10.13
▁gross	-10.13
▁Think	-10.1301
▁tomb	-10.1306
▁lock	-10.1309
▁guilty	-10.1309
▁aid	-10.1315
ov	-10.1317
▁escape	-10.1325
ative	-10.1326
kin	-10.1329
▁rid	-10.1339
▁doing	-10.134
▁redeem	-10.134
▁join	-10.1364
ough	-10.1364
▁naked	-10.1377
▁cheer	-10.1379
▁George	-10.1381
▁University	-10.1381
▁suburbs	-10.1381
▁triumph	-10.1381
▁distress	-10.1381
▁thunder	-10.1381
▁broad	-10.1382
▁Pre	-10.1395
▁wanton	-10.1395
▁Pi	-10.1398
▁dreadful	-10.1406
▁greatly	-10.141
ace	-10.1415
UR	-10.1422
▁express	-10.1423
▁meaning	-10.1442
▁ORLANDO	-10.1463
▁PERICLES	-10.1463
▁VIOLA	-10.1463
▁various	-10.1463
▁vineyard	-10.1463
▁rude	-10.1464
▁vengeance	-10.1464
▁November	-10.1464
▁continued	-10.1465
▁tread	-10.1466
▁based	-10.1466
▁authority	-10.1466
▁wherewith	-10.1466
▁sell	-10.1473
▁Only	-10.1488
▁sudden	-10.1526
▁generations	-10.1536
▁wounds	-10.1543
▁LEONATO	-10.1546
▁THESEUS	-10.1546
▁mischief	-10.1546
▁Knight	-10.1547
▁Also	-10.1548
▁taking	-10.1549
▁Long	-10.155
▁sinned	-10.1552
▁km	-10.1559
▁standing	-10.1565
▁tribes	-10.1569
AT	-10.1572
▁include	-10.1573
▁sides	-10.1597
▁Beth	-10.1603
▁Han	-10.1606
▁Count	-10.1616
▁Ga	-10.1617
lam	-10.1618
▁blush	-10.1629
▁embrace	-10.1629
▁stroke	-10.1629
▁protest	-10.1629
▁idle	-10.163
▁General	-10.163
▁June	-10.1632
▁Harry	-10.1633
▁household	-10.1634
rid	-10.1637
▁bestow	-10.1639
▁Jove	-10.1641
▁Kate	-10.1649
▁anointed	-10.1652
▁Air	-10.1652
▁cruel	-10.1654
▁Many	-10.1675
▁Wherein	-10.1681
▁weigh	-10.1683
▁observe	-10.1685
▁Gods	-10.1713
▁civil	-10.1713
▁CORV	-10.1713
▁December	-10.1713
▁IMOGEN	-10.1713
▁OLIVIA	-10.1713
▁confirm	-10.1713
▁perhaps	-10.1713
▁violence	-10.1713
▁shoot	-10.1713
▁glass	-10.1715
▁safety	-10.1715
▁dangerous	-10.1716
▁heap	-10.1717
ium	-10.1721
▁stage	-10.1722
▁holds	-10.1726
▁abuse	-10.1729
▁Lets	-10.1745
▁bind	-10.1746
▁tongues	-10.1747
▁goal	-10.1752
und	-10.1766
AD	-10.1769
▁acts	-10.1783
▁SICINIUS	-10.1798
▁SPEED	-10.1798
▁Spenser	-10.1798
▁companion	-10.1798
▁liberty	-10.1798
▁sacred	-10.1798
▁tremble	-10.1798
▁Yue	-10.1799
▁House	-10.1799
▁salt	-10.18
▁pair	-10.1802
line	-10.1804
▁weeping	-10.1804
▁Without	-10.1809
▁mere	-10.1813
▁50	-10.1815
▁clouds	-10.1815
▁burned	-10.1821
▁anon	-10.1828
▁grown	-10.1833
▁foundation	-10.1834
rest	-10.1843
▁troubled	-10.1855
▁Get	-10.186
▁intent	-10.1877
▁ITHAMORE	-10.1884
▁bodies	-10.1884
▁Nothing	-10.1884
▁cell	-10.1887
▁195	-10.1895
▁38	-10.1899
▁Up	-10.1912
▁dew	-10.1914
▁utterly	-10.1914
▁nose	-10.1929
▁date	-10.1957
▁faults	-10.1958
old	-10.1966
▁despite	-10.197
▁PROSPERO	-10.197
▁likewise	-10.197
▁CELIA	-10.197
▁steel	-10.197
▁South	-10.197
▁ANGELO	-10.197
_.	-10.1987
▁Army	-10.1993
▁declare	-10.2013
▁breed	-10.2021
▁highest	-10.2021
▁winds	-10.2029
▁garment	-10.203
▁horn	-10.2031
▁mayest	-10.2033
▁Egyptian	-10.2038
▁Britain	-10.2057
▁maintain	-10.2057
▁tidings	-10.2057
▁fifth	-10.2057
▁level	-10.2057
▁yoke	-10.2057
▁Charles	-10.2058
▁2007	-10.2058
▁quoth	-10.2059
▁cor	-10.2059
▁performance	-10.206
▁speaks	-10.2061
▁oxen	-10.2062
▁Every	-10.2063
▁Each	-10.2065
▁kindness	-10.2073
▁trial	-10.2073
▁boot	-10.2075
▁suddenly	-10.2077
▁render	-10.2078
▁armed	-10.2083
▁gifts	-10.2092
▁Red	-10.2095
▁Put	-10.2098
▁cursed	-10.211
▁chariots	-10.2113
▁greatness	-10.2133
▁speaking	-10.2139
▁saints	-10.2139
▁ENOBARBUS	-10.2144
▁Gilead	-10.2144
▁virtuous	-10.2144
▁excuse	-10.2145
▁devise	-10.2145
▁sorry	-10.2145
▁brook	-10.2145
▁Daniel	-10.2145
▁affliction	-10.215
▁merit	-10.2151
▁firstborn	-10.2152
▁devils	-10.2163
▁deserve	-10.2177
▁vine	-10.2184
▁Pe	-10.2186
ute	-10.2192
▁gall	-10.2204
ctor	-10.2206
▁lad	-10.2215
ail	-10.2216
▁Che	-10.2221
▁ended	-10.2228
▁suffered	-10.2231
▁control	-10.2231
▁CASSIO	-10.2233
▁CORB	-10.2233
▁SOLDIER	-10.2233
▁instead	-10.2233
ith	-10.2233
▁rail	-10.2235
▁Hark	-10.224
▁interest	-10.2241
▁fields	-10.2256
▁powers	-10.2258
▁melt	-10.226
▁plead	-10.2262
af	-10.2264
▁Paris	-10.2268
▁ride	-10.2271
▁fallen	-10.2274
▁takes	-10.2287
▁cheek	-10.2298
▁figure	-10.2299
▁Syria	-10.2321
▁Canaan	-10.2321
▁2013	-10.2322
▁ADAM	-10.2322
▁famine	-10.2322
▁Keep	-10.2322
▁Christmas	-10.2322
▁bill	-10.2328
▁deadly	-10.2328
▁however	-10.2331
▁Page	-10.2352
▁bears	-10.2353
▁plan	-10.2355
▁cat	-10.2358
▁Old	-10.2359
▁(1	-10.2364
▁Una	-10.2366
▁accept	-10.2368
▁1.	-10.2377
▁inward	-10.2379
pd	-10.2382
pen	-10.2387
▁hadst	-10.2401
▁ends	-10.2405
▁punish	-10.241
▁HORATIO	-10.2412
▁LUCIO	-10.2412
▁prophesy	-10.2412
▁rogue	-10.2412
▁wench	-10.2413
▁sole	-10.2414
▁wheel	-10.2414
▁Turn	-10.2415
▁torment	-10.2416
▁sigh	-10.2417
▁den	-10.2417
art	-10.2428
▁lawful	-10.2432
▁pitch	-10.2432
▁wept	-10.2445
▁images	-10.2446
ably	-10.2479
▁vessel	-10.2483
▁leaves	-10.2492
▁frame	-10.2494
▁lovers	-10.2499
▁entertain	-10.2499
▁official	-10.2503
▁Claudio	-10.2503
▁serpent	-10.2503
▁wander	-10.2504
▁purse	-10.2504
▁September	-10.2505
▁Troy	-10.2508
▁pound	-10.251
▁flower	-10.2511
▁37	-10.2517
▁cure	-10.2525
ene	-10.2532
▁ne	-10.2534
▁signs	-10.2546
▁coat	-10.2554
▁metal	-10.2567
▁Angel	-10.2571
▁brain	-10.2576
▁bird	-10.2576
▁addition	-10.2577
▁mid	-10.2583
▁gospel	-10.2595
▁remnant	-10.2595
▁strife	-10.2595
▁twas	-10.2595
▁twice	-10.2595
▁vanity	-10.2595
▁thief	-10.2595
▁XX	-10.2595
▁legs	-10.2596
EL	-10.2597
▁Stay	-10.2598
▁guest	-10.26
▁Highness	-10.2601
▁Best	-10.2624
▁flowers	-10.2624
▁cave	-10.263
▁gr	-10.2635
▁Va	-10.2639
ET	-10.2642
▁Ere	-10.2649
▁gar	-10.2659
▁higher	-10.2665
▁messenger	-10.267
▁week	-10.2671
▁elect	-10.2675
▁ju	-10.2676
▁temper	-10.2688
▁Absalom	-10.2688
▁JULIA	-10.2688
▁argument	-10.2688
▁challenge	-10.2688
▁similar	-10.2688
▁terror	-10.2688
▁blue	-10.2688
▁boast	-10.2688
▁local	-10.2688
▁XXX	-10.2688
▁decree	-10.2688
▁armour	-10.2692
▁GA	-10.2695
▁crave	-10.2698
▁rep	-10.2701
▁firm	-10.2702
▁foes	-10.2703
ger	-10.2705
▁prisoner	-10.2707
▁board	-10.2715
▁row	-10.2715
uce	-10.2723
▁consumed	-10.273
itie	-10.2731
▁bend	-10.2736
but	-10.2748
▁songs	-10.2762
▁dwelling	-10.2762
▁Earl	-10.2766
▁pursue	-10.2778
▁BEATRICE	-10.2781
▁defence	-10.2781
▁consist	-10.2781
▁spear	-10.2782
▁monster	-10.2782
▁important	-10.2782
▁officer	-10.2798
CH	-10.2817
▁Si	-10.282
▁36	-10.282
▁players	-10.2828
▁forced	-10.2833
▁represent	-10.2834
▁pot	-10.2844
▁stated	-10.2852
▁Haven	-10.2854
▁performed	-10.2859
▁final	-10.2863
▁advance	-10.2872
▁empty	-10.2875
▁National	-10.2875
▁dinner	-10.2876
▁goats	-10.2876
▁Adam	-10.2876
▁1:2	-10.2877
▁deities	-10.2879
▁share	-10.288
▁youll	-10.2899
ras	-10.2909
▁wert	-10.2912
▁mothers	-10.2914
ham	-10.2915
lah	-10.2918
hen	-10.2922
▁aught	-10.2923
▁joined	-10.2923
ement	-10.2924
uring	-10.2936
▁fare	-10.2937
▁shed	-10.294
▁feared	-10.2947
▁steps	-10.2948
ock	-10.2957
fold	-10.2964
▁drunk	-10.2964
tte	-10.2966
▁ELIZABETH	-10.2971
▁MURDERER	-10.2971
▁Welcome	-10.2971
▁Ghost	-10.2971
▁PRINCESS	-10.2971
▁wondrous	-10.2971
▁frown	-10.2971
▁player	-10.2972
▁Room	-10.2973
▁Edom	-10.2974
▁satisfied	-10.2976
▁Hill	-10.2978
▁anti	-10.2979
▁Dost	-10.2983
▁ruler	-10.2984
▁moment	-10.2985
▁direct	-10.2987
▁belly	-10.2989
▁birds	-10.299
▁45	-10.2992
▁City	-10.2998
ong	-10.3
har	-10.3022
▁promised	-10.3024
ung	-10.303
▁books	-10.3039
IC	-10.3045
wi	-10.3046
▁BERTRAM	-10.3067
▁Clarence	-10.3067
▁Jeroboam	-10.3067
▁contract	-10.3067
▁hollow	-10.3067
▁rebuke	-10.3067
▁twere	-10.3067
▁doom	-10.3068
▁debt	-10.3068
▁alter	-10.3068
▁Could	-10.3069
▁troth	-10.3071
▁ox	-10.3072
▁Made	-10.3073
▁fe	-10.3073
▁nought	-10.3074
▁gu	-10.3077
▁vice	-10.3077
▁beaten	-10.308
▁190	-10.3087
▁reported	-10.3088
▁disc	-10.3088
▁Fie	-10.3101
OS	-10.3103
▁pains	-10.3113
▁Moor	-10.3116
▁compass	-10.3119
▁ro	-10.3125
TH	-10.3126
▁bell	-10.3163
▁ARMADO	-10.3164
▁BASTARD	-10.3164
▁POMPEY	-10.3164
▁device	-10.3164
▁violent	-10.3164
▁worm	-10.3164
▁William	-10.3164
▁latter	-10.3164
▁milk	-10.3164
▁Remember	-10.3164
▁forgot	-10.3164
▁Tower	-10.3165
▁Music	-10.3165
▁price	-10.3165
▁lying	-10.3165
▁y	-10.3167
▁rap	-10.3185
▁Ni	-10.3186
▁changed	-10.319
▁breadth	-10.3195
ire	-10.3196
▁boys	-10.3199
▁produced	-10.3199
▁provide	-10.3206
▁value	-10.321
▁intend	-10.3221
▁Hi	-10.323
▁crowns	-10.3237
▁fan	-10.324
ther	-10.324
▁idols	-10.3244
▁meant	-10.3254
▁shepherd	-10.3256
▁finger	-10.3256
III	-10.3262
▁APEMANTUS	-10.3262
▁COUNTESS	-10.3262
▁EDGAR	-10.3262
▁HOTSPUR	-10.3262
▁NURSE	-10.3262
▁purchase	-10.3262
▁discourse	-10.3262
▁Ammon	-10.3263
▁2008	-10.3264
▁stuff	-10.3265
▁front	-10.3265
▁Unless	-10.3272
▁recorded	-10.3272
▁Gad	-10.3277
▁judgement	-10.3282
▁lean	-10.3285
▁knoweth	-10.3293
war	-10.3293
▁iv	-10.3302
tical	-10.3316
▁instruments	-10.3326
uous	-10.333
▁points	-10.3333
▁knees	-10.3345
▁EVE	-10.335
▁theres	-10.3351
▁Set	-10.3351
J	-10.3354
▁popular	-10.3359
house	-10.3361
▁BARDOLPH	-10.3361
▁Barabas	-10.3361
▁Thomas	-10.3361
▁awhile	-10.3361
▁scholar	-10.3361
▁synagogue	-10.3361
▁slept	-10.3361
▁paid	-10.3361
▁shout	-10.3363
▁Rock	-10.3366
▁hanged	-10.3367
▁branches	-10.337
rea	-10.3373
AM	-10.3376
▁(19	-10.3381
▁remains	-10.3382
▁vows	-10.339
bar	-10.339
▁finished	-10.3391
▁chart	-10.3397
▁Mary	-10.3403
▁formed	-10.3403
▁divide	-10.3404
▁smile	-10.3406
▁calls	-10.3415
▁preach	-10.3423
▁fleet	-10.3426
fect	-10.3429
▁liveth	-10.3446
▁inherit	-10.3459
▁CAPULET	-10.3461
▁SEBASTIAN	-10.3461
▁bastard	-10.3461
▁bottom	-10.3461
▁monstrous	-10.3461
▁slander	-10.3461
▁Three	-10.3461
▁Esau	-10.3461
▁relationship	-10.3461
▁Arthur	-10.3461
▁dollar	-10.3462
▁unknown	-10.3462
▁stock	-10.3463
▁club	-10.3463
▁track	-10.3463
▁Lock	-10.3467
▁standard	-10.347
▁leg	-10.3472
▁joint	-10.3472
▁pillars	-10.3472
▁Poor	-10.3474
▁India	-10.3475
▁44	-10.3483
▁tend	-10.3486
▁Dar	-10.3488
▁banished	-10.349
▁couple	-10.3491
▁unit	-10.3496
▁fi	-10.3506
▁remove	-10.3511
▁outward	-10.3512
▁lower	-10.3521
▁Mis	-10.3538
▁Col	-10.3541
▁Command	-10.3561
▁exceeding	-10.3561
▁captive	-10.3562
▁condition	-10.3562
▁January	-10.3562
▁LAFEW	-10.3562
▁antimony	-10.3562
▁encounter	-10.3562
▁famous	-10.3562
▁smooth	-10.3562
▁estate	-10.3562
▁nay	-10.3562
▁rush	-10.3562
▁current	-10.3563
▁aircraft	-10.3563
▁Among	-10.3563
▁huge	-10.3563
▁key	-10.3564
▁bury	-10.3564
▁bank	-10.3567
▁immediately	-10.3568
▁victory	-10.357
▁maiden	-10.3576
▁Time	-10.3581
▁hated	-10.3592
▁sow	-10.3593
▁persons	-10.3605
▁jo	-10.3607
▁pitched	-10.3608
▁fr	-10.3609
of	-10.3612
▁tenth	-10.3617
len	-10.3621
▁stretch	-10.3623
▁aim	-10.3651
▁peril	-10.3653
▁lets	-10.3655
▁miss	-10.3657
▁trumpets	-10.3659
▁difference	-10.3664
▁dishonour	-10.3664
▁extreme	-10.3664
▁rascal	-10.3664
▁terrible	-10.3664
▁threescore	-10.3664
▁entire	-10.3664
▁Turk	-10.3664
▁envy	-10.3664
▁memory	-10.3664
▁Indeed	-10.3664
▁commission	-10.3664
▁Simon	-10.3665
▁moral	-10.3665
▁crew	-10.3665
▁fiery	-10.3667
▁mild	-10.3669
▁Still	-10.3669
▁increased	-10.3676
▁strangers	-10.3682
▁messengers	-10.3683
▁IN	-10.3688
▁cheeks	-10.3691
▁rent	-10.3693
▁damned	-10.37
▁Ju	-10.3706
▁drown	-10.3726
▁establish	-10.3726
▁xi	-10.3729
▁spite	-10.373
▁concern	-10.3731
▁begins	-10.3732
▁Pompey	-10.3767
▁brake	-10.3767
▁entrance	-10.3767
▁throat	-10.3767
▁Athens	-10.3767
▁attack	-10.3767
▁avoid	-10.3768
▁charity	-10.3768
▁constant	-10.3768
▁dress	-10.3771
▁affection	-10.3773
▁Surely	-10.3776
▁kneel	-10.3779
▁rob	-10.3785
▁Save	-10.3785
▁gainst	-10.3795
▁brow	-10.38
▁honesty	-10.3819
oke	-10.382
▁knowest	-10.3823
▁wax	-10.3831
▁prop	-10.3832
▁wounded	-10.3841
▁shekels	-10.3859
▁forsake	-10.386
▁Talbot	-10.3871
▁audience	-10.3871
▁malice	-10.3871
▁denied	-10.3872
▁crime	-10.3872
▁Brook	-10.3873
▁Light	-10.3874
some	-10.3875
▁fellows	-10.388
ttle	-10.3883
▁39	-10.3886
ular	-10.3904
▁honours	-10.3911
▁Par	-10.3921
bon	-10.3928
▁provided	-10.3932
▁Heres	-10.3932
▁unless	-10.3932
▁fie	-10.3941
ION	-10.395
low	-10.3962
▁Part	-10.3968
▁VOLT	-10.3976
▁harvest	-10.3976
▁2011	-10.3977
▁2010	-10.3977
▁disdain	-10.3977
▁sky	-10.3977
▁Woe	-10.3977
▁loath	-10.3982
▁fond	-10.3982
▁Angelo	-10.3987
▁window	-10.3992
▁calld	-10.3992
▁shown	-10.4005
▁ii	-10.401
▁lines	-10.4032
▁shortly	-10.4033
▁below	-10.4033
arch	-10.4035
▁crow	-10.4042
▁ones	-10.4044
▁working	-10.405
▁42	-10.4061
▁jealous	-10.4068
▁praised	-10.407
foot	-10.4076
▁freely	-10.4076
▁err	-10.4077
▁prosper	-10.4079
▁major	-10.4081
▁modern	-10.4083
▁quality	-10.4083
▁naught	-10.4083
▁thrice	-10.4083
▁earnest	-10.4083
▁lodge	-10.4083
▁novel	-10.4083
▁River	-10.4083
uch	-10.4084
▁countries	-10.4084
▁Arise	-10.4084
▁Tree	-10.4084
▁2009	-10.4084
▁Ahab	-10.4086
▁snow	-10.4087
▁taen	-10.4091
▁continually	-10.4095
▁County	-10.4103
▁100	-10.4104
▁41	-10.411
▁scattered	-10.4115
▁follows	-10.4123
lar	-10.4126
▁tune	-10.4131
ros	-10.4134
▁discover	-10.4134
ties	-10.4144
▁lambs	-10.4147
▁US	-10.4149
▁condemn	-10.4149
▁market	-10.4167
▁scar	-10.417
30	-10.4178
▁allow	-10.418
▁seest	-10.4188
▁ANNE	-10.419
▁Suffolk	-10.419
▁contrary	-10.419
▁despair	-10.419
▁whilst	-10.419
▁goddess	-10.419
▁manifest	-10.419
▁snare	-10.4191
▁Power	-10.4191
▁sirrah	-10.4197
▁pick	-10.4201
▁ST	-10.4202
▁ix	-10.4213
rent	-10.4216
▁comedy	-10.4218
▁CO	-10.4219
▁appears	-10.4222
▁sixth	-10.4227
gan	-10.4245
▁TO	-10.4248
▁None	-10.4249
▁evening	-10.4249
▁breathe	-10.4257
▁wretch	-10.4258
lit	-10.426
▁thirst	-10.4278
▁rebel	-10.4298
▁DEMETRIUS	-10.4299
▁TRANIO	-10.4299
▁Troilus	-10.4299
▁desperate	-10.4299
▁savour	-10.4299
▁smoke	-10.4299
▁testimony	-10.4299
▁cedar	-10.4299
▁palm	-10.4299
▁Little	-10.43
▁divers	-10.43
▁hart	-10.4303
▁punishment	-10.4303
▁Castle	-10.4303
▁spot	-10.4304
▁event	-10.4307
▁bull	-10.431
▁tall	-10.4313
▁giving	-10.4313
▁Young	-10.4318
▁fa	-10.4325
▁State	-10.4327
▁hills	-10.433
▁whore	-10.433
▁Tri	-10.4335
▁shoulder	-10.4338
▁Na	-10.4348
▁dec	-10.4357
▁doeth	-10.4361
▁repair	-10.4368
▁farr	-10.4371
▁manners	-10.4385
▁Reuben	-10.4409
▁Somerset	-10.4409
▁THERSITES	-10.4409
▁abundance	-10.4409
▁contempt	-10.4409
▁methinks	-10.4409
▁religious	-10.4409
▁Titus	-10.4409
▁dumb	-10.4409
▁grievous	-10.441
▁delay	-10.441
▁chase	-10.4412
▁babe	-10.4412
▁Office	-10.4414
za	-10.4414
▁grows	-10.4414
▁knee	-10.4414
▁qua	-10.4419
▁habit	-10.4422
▁Other	-10.443
▁wits	-10.4432
long	-10.4439
▁personal	-10.4458
▁Hero	-10.4462
▁fed	-10.4473
▁test	-10.4475
tem	-10.449
▁mon	-10.4502
rib	-10.4505
▁hanging	-10.4513
▁rivers	-10.4518
▁Buckingham	-10.452
▁Captain	-10.452
▁Lucius	-10.452
▁disgrace	-10.452
▁picture	-10.452
▁revolt	-10.452
▁sepulchre	-10.452
▁curtain	-10.452
▁strive	-10.452
▁nurse	-10.452
▁abode	-10.452
▁Michael	-10.4521
▁secure	-10.4522
▁ransom	-10.4523
▁Doctor	-10.4524
▁suck	-10.4527
▁sack	-10.4529
▁196	-10.4532
▁shouldst	-10.4536
▁rate	-10.4539
▁reasons	-10.454
▁elder	-10.4541
▁weapons	-10.4542
▁swords	-10.4571
▁complete	-10.4576
▁net	-10.4577
▁poured	-10.4586
▁tempt	-10.4587
▁proclaim	-10.4591
▁added	-10.4602
▁roar	-10.4616
bu	-10.4623
▁pin	-10.4623
▁HOSTESS	-10.4632
▁Margaret	-10.4632
▁dispatch	-10.4632
▁familiar	-10.4632
▁tempest	-10.4632
▁construction	-10.4634
▁2006	-10.4634
▁Sing	-10.4641
▁batt	-10.4642
▁fig	-10.4644
▁flying	-10.4648
▁sand	-10.4652
▁bearing	-10.4657
▁healed	-10.4677
▁highness	-10.468
▁characters	-10.4686
▁prevent	-10.4705
▁prevail	-10.4705
inc	-10.4732
off	-10.474
▁bent	-10.4741
▁ANDREW	-10.4746
▁EVANS	-10.4746
▁MALVOLIO	-10.4746
▁NORTHUMBERLAND	-10.4746
▁SENATOR	-10.4746
▁asleep	-10.4746
▁system	-10.4746
▁tribute	-10.4746
▁eagle	-10.4746
▁native	-10.4746
▁serious	-10.4746
▁Besides	-10.4746
▁True	-10.4746
▁fulfilled	-10.4747
▁MOTH	-10.4747
▁About	-10.4747
▁2:2	-10.4748
▁fiend	-10.4748
▁type	-10.4748
▁buck	-10.475
▁habitation	-10.475
▁successful	-10.4751
▁bowed	-10.4754
▁sitting	-10.4755
▁dot	-10.4757
▁cool	-10.4757
late	-10.4761
▁robe	-10.4763
east	-10.4777
▁33	-10.4786
here	-10.4788
▁scored	-10.4793
cher	-10.4795
▁forbear	-10.48
▁wi	-10.48
rim	-10.4801
▁Di	-10.4806
▁quit	-10.4811
20	-10.4816
▁arriv	-10.482
▁ft	-10.4822
▁becomes	-10.4825
cap	-10.4843
▁op	-10.4845
▁flocks	-10.4853
▁sacrifices	-10.486
▁FERNEZE	-10.4861
▁Falstaff	-10.4861
▁POLONIUS	-10.4861
▁Robert	-10.4861
▁Venice	-10.4861
▁breach	-10.4861
▁chaste	-10.4861
▁division	-10.4861
▁happiness	-10.4861
▁policy	-10.4861
▁AML	-10.4861
▁yonder	-10.4861
▁rising	-10.4861
▁Hamlet	-10.4862
▁production	-10.4863
▁tarry	-10.4863
▁forms	-10.4864
▁range	-10.4872
▁fla	-10.4888
▁Pharisees	-10.4891
▁slip	-10.4897
now	-10.4907
▁lions	-10.4912
▁Com	-10.4914
▁Sal	-10.4916
▁accuse	-10.4921
▁refuse	-10.4921
▁despise	-10.4921
▁inform	-10.4934
▁eer	-10.4945
cent	-10.495
▁COSTARD	-10.4977
▁Methinks	-10.4977
▁emperor	-10.4977
▁fountain	-10.4977
▁ghost	-10.4977
▁sojourn	-10.4977
▁mirth	-10.4977
▁atonement	-10.4977
▁prick	-10.4978
▁Kingdom	-10.4981
▁stick	-10.4983
▁meeting	-10.4985
▁villages	-10.4988
▁sware	-10.4992
▁Him	-10.5004
▁jewel	-10.5009
▁outside	-10.501
▁asses	-10.5016
▁supposed	-10.5019
▁sometime	-10.5029
▁dro	-10.503
BLE	-10.5032
wing	-10.5042
og	-10.5045
her	-10.5046
▁princely	-10.5046
▁wave	-10.5048
▁restore	-10.5048
lesse	-10.5051
▁knights	-10.5057
▁stain	-10.5059
▁mix	-10.506
king	-10.5067
itude	-10.5078
▁elements	-10.5086
▁minds	-10.509
▁absence	-10.5095
▁benefit	-10.5095
▁purple	-10.5095
▁reverence	-10.5095
▁zeal	-10.5095
▁Having	-10.5095
▁durst	-10.5095
▁renown	-10.5095
▁text	-10.5095
▁ward	-10.5095
▁reap	-10.5095
▁Blue	-10.5096
▁roll	-10.5099
▁fate	-10.51
▁Much	-10.51
▁Too	-10.5106
▁error	-10.5114
▁ont	-10.5119
▁non	-10.5138
▁stretched	-10.5143
▁kingdoms	-10.5145
▁upward	-10.5147
▁affairs	-10.515
▁Live	-10.5153
▁ob	-10.5162
▁gen	-10.5175
▁bu	-10.5177
▁grieve	-10.5178
aph	-10.518
▁knowing	-10.5196
▁fain	-10.5197
▁Antonio	-10.5214
▁DUCHESS	-10.5214
▁Jehoshaphat	-10.5214
▁Martius	-10.5214
▁difficult	-10.5214
▁melancholy	-10.5214
▁esteem	-10.5214
▁blast	-10.5214
▁leap	-10.5214
▁middle	-10.5214
▁gallant	-10.5217
▁Jewish	-10.5219
▁seemd	-10.5225
▁rulers	-10.5232
▁seeming	-10.5233
▁tents	-10.5233
▁defiled	-10.5249
▁remembered	-10.5252
▁(2	-10.5254
▁damn	-10.526
▁chambers	-10.526
NE	-10.5274
soever	-10.5276
▁miles	-10.528
aught	-10.5283
▁deceived	-10.5287
▁opening	-10.5287
▁corrupt	-10.5289
▁Indian	-10.5318
▁profess	-10.5327
▁Achilles	-10.5335
▁CYMBELINE	-10.5335
▁Catholic	-10.5335
▁KATHERINA	-10.5335
▁experience	-10.5335
▁province	-10.5335
▁spacing	-10.5335
▁Satan	-10.5335
▁shade	-10.5335
▁adventure	-10.5335
▁supper	-10.5336
▁caught	-10.5336
▁2012	-10.5337
▁warlike	-10.5343
▁forsaken	-10.535
▁member	-10.5378
▁43	-10.5394
▁Cla	-10.5401
▁damage	-10.5402
▁hearkened	-10.5404
▁towns	-10.5409
▁offended	-10.541
bear	-10.541
▁Mars	-10.541
▁desired	-10.5413
run	-10.5449
▁Bear	-10.5454
▁Cassius	-10.5456
▁EDMUND	-10.5456
▁Trujillo	-10.5456
▁ULYSSES	-10.5456
▁blemish	-10.5456
▁depict	-10.5456
▁execution	-10.5456
▁obedience	-10.5456
▁pilot	-10.5456
▁easy	-10.5456
▁parents	-10.5457
▁East	-10.5457
▁attain	-10.5457
lim	-10.5457
▁flies	-10.5461
▁Levi	-10.5462
▁doctor	-10.5479
▁step	-10.5486
▁total	-10.5497
▁instrument	-10.55
▁chariot	-10.55
▁younger	-10.551
ose	-10.5513
▁leading	-10.5514
▁despised	-10.5516
▁San	-10.5519
▁rams	-10.5523
▁consume	-10.5524
▁mourning	-10.5526
CA	-10.5543
▁Follow	-10.5544
▁thousands	-10.5553
▁kin	-10.5562
▁chose	-10.5567
▁bands	-10.5573
▁ESCALUS	-10.558
▁Lebanon	-10.558
▁Nevertheless	-10.558
▁process	-10.558
▁profane	-10.558
▁depend	-10.558
▁source	-10.5582
▁murderer	-10.5582
ui	-10.5583
▁ashes	-10.5585
▁heels	-10.5596
▁mass	-10.5599
▁desires	-10.5604
▁July	-10.5604
ification	-10.5606
▁govern	-10.5607
▁realm	-10.5613
▁teaching	-10.5613
▁hail	-10.5615
▁Cor	-10.5629
▁fowl	-10.563
▁Fare	-10.5636
▁looking	-10.5637
▁path	-10.5641
▁Over	-10.5643
▁playing	-10.5645
▁Fo	-10.5651
▁placed	-10.566
▁hu	-10.5666
▁feeling	-10.5676
▁pop	-10.568
live	-10.5682
▁conquer	-10.5687
▁troops	-10.5695
mark	-10.5698
▁flour	-10.5703
ST	-10.5703
▁MACDUFF	-10.5705
▁SHYLOCK	-10.5705
▁WOLSEY	-10.5705
▁apparel	-10.5705
▁confusion	-10.5705
▁council	-10.5705
▁eleven	-10.5705
▁population	-10.5705
▁Hebron	-10.5705
▁BOYET	-10.5705
▁worshipped	-10.5705
▁array	-10.5705
▁ADRIANA	-10.5705
▁adult	-10.5705
▁defeat	-10.5705
▁Shiva	-10.5706
▁grove	-10.5706
▁ripe	-10.5706
▁usurp	-10.5707
▁Scot	-10.5707
▁highway	-10.5713
▁careful	-10.5715
▁Island	-10.5718
▁bringeth	-10.572
▁sickness	-10.572
roth	-10.5722
fl	-10.5724
▁madness	-10.5724
▁weeks	-10.5728
▁cries	-10.5731
over	-10.5751
▁virtues	-10.5754
▁Ham	-10.5754
▁abomination	-10.5754
▁VI	-10.5765
▁create	-10.5777
▁lovely	-10.5779
▁escaped	-10.5793
▁fact	-10.5794
▁aspect	-10.581
▁branch	-10.582
▁qui	-10.5823
stone	-10.5825
▁su	-10.5825
▁vex	-10.5831
▁League	-10.5831
▁POSTHUMUS	-10.5831
▁Prithee	-10.5831
▁Squadron	-10.5831
▁doctrine	-10.5831
▁knife	-10.5831
▁Philip	-10.5832
▁MARIA	-10.5832
▁Elisha	-10.5832
▁Pardon	-10.5832
▁everything	-10.5832
▁Route	-10.5832
▁print	-10.5833
▁sorrows	-10.5833
▁provoke	-10.5834
▁Sirrah	-10.5835
▁Helen	-10.5841
▁Show	-10.5843
▁Land	-10.5844
▁pra	-10.5848
▁Port	-10.5849
▁arch	-10.5854
▁Force	-10.5858
▁Bid	-10.5861
▁Da	-10.5861
▁prisoners	-10.5871
cat	-10.5871
▁discovered	-10.588
▁dearest	-10.5881
▁peer	-10.5883
▁shell	-10.5892
▁blows	-10.5898
spect	-10.59
▁upper	-10.5906
▁swallow	-10.5918
▁dies	-10.592
▁amaz	-10.5923
▁greet	-10.5924
▁leader	-10.5925
▁dig	-10.5928
▁subjects	-10.593
▁seas	-10.595
Q	-10.596
▁Between	-10.596
▁CLOTEN	-10.596
▁IACHIMO	-10.596
▁NBA	-10.596
▁School	-10.596
▁access	-10.596
▁enforce	-10.596
▁miracle	-10.596
▁television	-10.596
▁Verily	-10.596
▁courtesy	-10.596
▁dying	-10.596
▁feeble	-10.596
▁prize	-10.5961
▁twin	-10.5961
▁undertake	-10.5962
▁big	-10.5971
▁comment	-10.5982
▁heal	-10.5986
▁cloth	-10.599
▁Anne	-10.5995
▁clothed	-10.6001
▁numbers	-10.6011
▁husbands	-10.6016
▁deceive	-10.6019
▁gun	-10.6038
▁End	-10.6039
▁sooner	-10.6043
▁afterward	-10.6044
▁cu	-10.6045
▁mayst	-10.6056
read	-10.607
▁instant	-10.6071
▁Europe	-10.6084
▁individual	-10.609
▁Almighty	-10.609
▁Whither	-10.609
▁ignorant	-10.609
▁material	-10.609
▁perpetual	-10.609
▁silent	-10.609
▁Palace	-10.609
▁version	-10.609
▁convey	-10.609
▁verily	-10.6091
▁Shi	-10.6092
▁token	-10.6093
▁Might	-10.6096
▁verse	-10.6102
▁vii	-10.6102
▁Job	-10.6114
▁turnd	-10.6117
▁wrongs	-10.6121
▁revealed	-10.6123
▁Hang	-10.6125
▁kindled	-10.6125
aries	-10.6149
▁charged	-10.6154
▁Ben	-10.6164
▁reached	-10.6165
▁conf	-10.6165
▁borrow	-10.618
rog	-10.6187
TER	-10.6193
▁retire	-10.6195
▁Once	-10.6195
▁possessed	-10.62
▁previous	-10.6201
▁Please	-10.6205
ford	-10.621
work	-10.6214
▁ACHILLES	-10.6221
▁Believe	-10.6221
▁KATHARINE	-10.6221
▁QUICKLY	-10.6221
▁counterfeit	-10.6221
▁evidence	-10.6221
▁quarter	-10.6221
▁wolf	-10.6221
▁contend	-10.6221
▁located	-10.6221
▁kinsman	-10.6221
▁lovd	-10.6221
▁ascend	-10.6221
▁hopes	-10.6222
▁task	-10.6222
▁Selah	-10.6222
▁Ali	-10.6222
▁loins	-10.6225
▁passover	-10.6225
▁passing	-10.6226
▁painted	-10.6226
hal	-10.6226
▁events	-10.6234
▁jealousy	-10.624
▁combat	-10.6242
▁driven	-10.6248
▁presented	-10.625
▁judged	-10.626
rah	-10.6261
angle	-10.6282
▁ball	-10.6291
▁dim	-10.6296
▁dam	-10.6298
▁abominations	-10.6302
don	-10.6315
▁knowst	-10.6322
▁apart	-10.6327
worth	-10.6348
ef	-10.6353
▁BOLINGBROKE	-10.6354
▁February	-10.6354
▁ROSALINE	-10.6354
▁TOUCHSTONE	-10.6354
▁Whether	-10.6354
▁stomach	-10.6354
▁tyrant	-10.6354
▁urge	-10.6355
▁ornament	-10.6355
▁scape	-10.6355
▁bottle	-10.6355
▁craft	-10.6355
▁Anderson	-10.6356
▁barren	-10.6359
▁director	-10.6369
▁Queene	-10.637
▁touched	-10.6372
▁Sho	-10.6375
GE	-10.6378
▁super	-10.6381
▁Four	-10.6388
▁lover	-10.6402
▁speaketh	-10.6407
▁wag	-10.6408
▁dealt	-10.6423
▁dish	-10.6424
▁bud	-10.6424
▁FA	-10.6432
▁disp	-10.6433
▁separate	-10.6433
▁repli	-10.6436
well	-10.6442
ome	-10.6443
▁sighs	-10.6448
▁conduct	-10.6448
▁scatter	-10.6449
▁publish	-10.6449
▁finish	-10.645
▁Friends	-10.6455
ban	-10.6455
▁guilt	-10.6461
part	-10.647
▁Sit	-10.6478
▁party	-10.6483
▁spur	-10.6485
▁thereon	-10.6489
▁WATCH	-10.649
▁BASSANIO	-10.649
▁Dauphin	-10.649
▁Eleazar	-10.649
▁MEPHIST	-10.649
▁Whilst	-10.649
▁advice	-10.649
▁dominion	-10.649
▁henceforth	-10.649
▁leisure	-10.649
▁reputation	-10.649
▁Either	-10.649
▁quench	-10.649
▁raven	-10.649
▁shift	-10.649
▁sweat	-10.649
▁thrive	-10.649
▁Wales	-10.649
▁midnight	-10.649
▁rash	-10.6493
▁horsemen	-10.6495
▁Book	-10.6496
▁dogs	-10.6497
▁sex	-10.6499
▁cock	-10.6501
▁whip	-10.6506
▁colours	-10.6508
▁prayed	-10.651
▁Day	-10.6512
▁achieve	-10.6519
▁coal	-10.6524
▁hired	-10.6539
▁don	-10.6542
▁tail	-10.6545
cted	-10.6547
.]:	-10.655
▁taketh	-10.6575
▁score	-10.6579
▁deare	-10.658
▁fairest	-10.6597
▁oaths	-10.6601
▁Ed	-10.6606
▁spoiled	-10.661
▁modest	-10.6611
▁corner	-10.6615
▁fruitful	-10.6618
▁CAMILLO	-10.6627
▁Galilee	-10.6627
▁HASTINGS	-10.6627
▁Lancaster	-10.6627
▁REGAN	-10.6627
▁argue	-10.6627
▁fifteen	-10.6627
▁gaze	-10.6627
▁twain	-10.6627
▁unkind	-10.6627
▁renew	-10.6627
▁suspect	-10.6627
▁stronger	-10.6627
▁pearl	-10.6627
▁fancy	-10.6628
▁Play	-10.663
▁kindred	-10.6635
▁Ten	-10.6637
▁bred	-10.6638
▁nest	-10.6646
▁feare	-10.6652
▁60	-10.6662
▁Bl	-10.6662
▁Amorites	-10.6665
law	-10.6681
dom	-10.6682
▁unb	-10.6684
▁Lay	-10.669
▁refused	-10.6694
▁fatal	-10.6696
▁hole	-10.6698
▁dove	-10.6711
▁banish	-10.6722
head	-10.673
▁threat	-10.6745
▁Has	-10.6748
▁Bolingbroke	-10.6765
▁SERVINGM	-10.6765
▁TALBOT	-10.6765
▁circumstance	-10.6765
▁excavation	-10.6765
▁infinite	-10.6765
▁narrow	-10.6765
▁pledge	-10.6765
▁conceit	-10.6765
▁otherwise	-10.6765
▁remedy	-10.6765
▁Italian	-10.6766
▁friar	-10.6766
▁mistake	-10.6766
▁pack	-10.6767
▁worn	-10.6767
▁pronounce	-10.6768
▁7:2	-10.6768
▁treat	-10.6769
▁dragon	-10.6771
▁pace	-10.6771
▁running	-10.6772
▁flat	-10.6774
▁sur	-10.6779
▁signed	-10.6781
▁states	-10.6785
▁Law	-10.6788
ral	-10.6793
▁station	-10.6796
▁Send	-10.6798
▁calling	-10.6806
▁Hall	-10.6806
▁operations	-10.6807
▁impos	-10.6812
▁befall	-10.6816
▁agreed	-10.6827
ched	-10.683
▁instruction	-10.6834
UM	-10.6847
esse	-10.6853
▁talents	-10.6855
can	-10.6856
▁physic	-10.6866
▁wonders	-10.6872
▁expos	-10.688
▁Again	-10.6894
▁Sin	-10.6896
▁Pur	-10.6896
UL	-10.6899
▁interpret	-10.6902
▁FRIEND	-10.6906
▁HORTENSIO	-10.6906
▁POIN	-10.6906
▁Palamon	-10.6906
▁Saprang	-10.6906
▁transport	-10.6906
▁understood	-10.6906
▁unjust	-10.6906
▁humbly	-10.6906
▁siege	-10.6906
▁video	-10.6906
▁Draw	-10.6906
▁strait	-10.6906
▁arrest	-10.6907
▁torture	-10.6907
▁couch	-10.6908
▁Return	-10.6908
▁reserv	-10.691
▁interpretation	-10.6911
▁Came	-10.6911
▁sting	-10.6911
LA	-10.6919
▁mingled	-10.692
▁Far	-10.6927
▁sway	-10.6928
▁exalted	-10.6929
▁scribes	-10.6931
▁maids	-10.6936
▁bark	-10.6941
most	-10.6947
▁besides	-10.6964
▁national	-10.6969
▁accepted	-10.6971
▁helped	-10.6974
ID	-10.6999
▁owner	-10.7001
▁bone	-10.7018
▁Don	-10.702
▁abhor	-10.7048
▁DOCTOR	-10.7049
▁LANCE	-10.7049
▁bliss	-10.7049
▁sanctified	-10.7049
▁society	-10.7049
▁salute	-10.7049
▁bride	-10.7049
▁blot	-10.7049
▁misery	-10.7049
▁harp	-10.7049
▁resist	-10.705
▁Life	-10.7051
▁undone	-10.7051
▁fright	-10.7052
▁Tomorrow	-10.7052
▁iii	-10.7057
▁drunken	-10.7057
SE	-10.706
▁hall	-10.7065
▁dreams	-10.708
▁CH	-10.7086
▁tables	-10.7087
▁hap	-10.7087
▁amend	-10.7093
▁artist	-10.7093
▁calm	-10.7098
▁sisters	-10.7099
▁bore	-10.7107
▁shouldest	-10.7115
▁training	-10.7116
▁Hu	-10.7131
▁generally	-10.7136
▁descend	-10.7153
▁jewels	-10.7155
▁earthly	-10.7171
▁covering	-10.7174
▁bids	-10.7183
▁wa	-10.7183
▁admir	-10.7187
field	-10.7188
▁commun	-10.7192
▁BAPTISTA	-10.7194
▁Clifford	-10.7194
▁Duessa	-10.7194
▁FLUELLEN	-10.7194
▁FOOL	-10.7194
▁GRATIANO	-10.7194
▁JAILER	-10.7194
▁Second	-10.7194
▁compound	-10.7194
▁desolation	-10.7194
▁especially	-10.7194
▁harlot	-10.7194
▁hereafter	-10.7194
▁ignorance	-10.7194
▁significant	-10.7194
▁push	-10.7194
▁strain	-10.7194
▁Court	-10.7194
▁Elijah	-10.7194
▁bawd	-10.7194
▁bowels	-10.7194
▁happen	-10.7195
▁Until	-10.7195
▁pull	-10.7195
▁gap	-10.7195
▁UK	-10.7196
▁4:2	-10.7196
▁wheat	-10.7197
▁Leave	-10.7198
▁inner	-10.7205
▁seventy	-10.7206
▁political	-10.7208
▁threaten	-10.7215
▁Char	-10.7216
shire	-10.7222
▁proved	-10.7223
▁Sound	-10.7224
▁185	-10.7224
▁wail	-10.7229
pit	-10.723
▁determined	-10.7243
▁fold	-10.7249
round	-10.7253
cho	-10.7253
▁thrown	-10.7262
uel	-10.7264
▁agree	-10.7273
▁Hence	-10.7274
▁woes	-10.7283
IM	-10.729
▁employ	-10.7296
▁limit	-10.73
▁waves	-10.7301
▁drops	-10.7303
60	-10.7323
▁AUTOLYCUS	-10.7341
▁Fruit	-10.7341
▁Valentine	-10.7341
▁appetite	-10.7341
▁assembly	-10.7341
▁interview	-10.7341
▁refuge	-10.7341
▁supplication	-10.7341
▁patron	-10.7341
▁check	-10.7341
▁Latin	-10.7341
▁Ireland	-10.7341
▁feather	-10.7341
▁roof	-10.7342
▁mood	-10.7342
▁treasures	-10.7342
▁decay	-10.7342
▁gown	-10.7342
▁venture	-10.7343
▁Jehu	-10.7343
▁somewhat	-10.7343
▁armies	-10.7353
▁highly	-10.7354
▁sup	-10.7361
my	-10.7362
▁developed	-10.7363
▁Caesars	-10.7373
RY	-10.7373
▁afflicted	-10.7377
▁seize	-10.7377
▁Win	-10.7383
▁Boy	-10.7392
▁mm	-10.7397
hold	-10.7407
▁Dear	-10.7422
▁actions	-10.7439
▁chang	-10.7441
▁sec	-10.7442
▁killd	-10.7442
▁started	-10.7445
▁required	-10.7447
▁newly	-10.7448
olog	-10.7452
▁declared	-10.7459
▁hardly	-10.7462
▁creatures	-10.747
▁idea	-10.7477
▁windows	-10.7478
▁deceit	-10.7488
▁Alexander	-10.749
▁COMINIUS	-10.749
▁DAUGHTER	-10.749
▁MARCUS	-10.749
▁SALISBURY	-10.749
▁commercial	-10.749
▁confidence	-10.749
▁disguise	-10.749
▁distinct	-10.749
▁ordinance	-10.749
▁raiment	-10.749
▁recompense	-10.749
▁trembling	-10.749
▁explain	-10.749
▁square	-10.749
▁Royal	-10.7491
▁Throne	-10.7491
▁Down	-10.7491
▁Wilde	-10.7492
▁reference	-10.7492
▁crack	-10.7493
▁deriv	-10.7493
▁5:2	-10.7493
▁fox	-10.7493
▁Tyre	-10.7494
▁debut	-10.7494
▁coach	-10.7495
▁viii	-10.7497
▁Bethel	-10.7497
▁compassion	-10.7497
▁Right	-10.7497
▁friendship	-10.7498
▁overcome	-10.7498
▁Union	-10.7504
▁que	-10.7505
▁chide	-10.7512
▁wants	-10.7512
hai	-10.7513
▁witch	-10.7516
▁rear	-10.7532
▁bowl	-10.7533
▁bit	-10.754
▁conceived	-10.7541
▁DE	-10.7558
▁griefs	-10.7561
OP	-10.7571
lai	-10.7579
inate	-10.7583
▁alike	-10.7583
▁granted	-10.7585
▁thorns	-10.7586
▁instruct	-10.7592
▁protect	-10.7593
bus	-10.7594
shed	-10.7599
▁anoint	-10.7601
▁confound	-10.7602
▁creep	-10.7606
▁washed	-10.7611
CO	-10.7626
▁schools	-10.7628
▁onely	-10.763
year	-10.7636
▁basket	-10.7642
▁Abimelech	-10.7642
▁Chaldeans	-10.7642
▁Edmund	-10.7642
▁PROVOST	-10.7642
▁Texas	-10.7642
▁altogether	-10.7642
▁exercise	-10.7642
▁reverend	-10.7642
▁sanctify	-10.7642
▁succeed	-10.7642
▁treacherous	-10.7642
▁banquet	-10.7642
▁conceal	-10.7642
▁Deliver	-10.7642
▁nail	-10.7642
▁studio	-10.7642
▁knot	-10.7642
▁scarlet	-10.7643
▁Full	-10.7643
▁9:2	-10.7644
▁flourish	-10.7645
▁stern	-10.7645
▁box	-10.7646
▁bondage	-10.7647
▁kid	-10.7648
▁parable	-10.765
▁xii	-10.765
▁willingly	-10.7652
▁forgotten	-10.7652
▁Gold	-10.7657
▁joyful	-10.7663
▁189	-10.7664
▁shun	-10.7665
fall	-10.7665
▁page	-10.767
▁thereby	-10.7672
▁entering	-10.7678
▁hat	-10.7683
▁cri	-10.7683
▁tied	-10.7685
▁loveth	-10.769
▁pleasures	-10.7692
▁hy	-10.7692
▁cop	-10.7702
▁tri	-10.7719
▁mov	-10.7719
▁redeemed	-10.7719
▁wak	-10.7725
▁apt	-10.7728
▁Song	-10.774
▁students	-10.7742
▁minute	-10.775
▁BE	-10.7754
▁obtain	-10.7755
▁fourteen	-10.7788
bur	-10.7788
▁STEPHANO	-10.7796
▁niece	-10.7796
▁pestilence	-10.7796
▁twixt	-10.7796
▁Shechem	-10.7796
▁education	-10.7796
▁steep	-10.7796
▁Content	-10.7796
▁Twas	-10.7796
▁behalf	-10.7796
▁spark	-10.7796
▁Canada	-10.7796
▁Mosca	-10.7796
▁stamp	-10.7796
▁silk	-10.7796
▁staves	-10.7796
▁revel	-10.7796
▁future	-10.7796
▁Hail	-10.7799
▁begun	-10.78
▁rings	-10.7801
▁rub	-10.7803
▁fingers	-10.7806
▁oak	-10.7809
▁affect	-10.7811
▁Gra	-10.7817
▁likeness	-10.7818
▁alas	-10.7821
Tis	-10.7826
▁size	-10.7826
▁traitors	-10.7826
▁80	-10.7828
OUS	-10.7829
▁Fr	-10.7834
▁followers	-10.7836
▁particularly	-10.7838
▁Asa	-10.784
▁Anti	-10.7843
▁fee	-10.7852
▁allowed	-10.7856
▁seemed	-10.786
▁breeding	-10.786
▁cra	-10.7861
▁damaged	-10.7868
▁severe	-10.788
▁execute	-10.7895
▁hire	-10.7897
▁bro	-10.7898
▁guns	-10.7899
▁operation	-10.7906
▁transgression	-10.7907
▁sleeping	-10.791
▁sink	-10.7916
▁Oh	-10.793
with	-10.7948
▁shallow	-10.795
▁import	-10.795
▁Ajax	-10.7952
▁BENVOLIO	-10.7952
▁Bardolph	-10.7952
▁CHARMIAN	-10.7952
▁Council	-10.7952
▁GRUMIO	-10.7952
▁HOST	-10.7952
▁Jericho	-10.7952
▁LAERTES	-10.7952
▁MARINA	-10.7952
▁Myself	-10.7952
▁dignity	-10.7952
▁necessary	-10.7952
▁travail	-10.7952
▁Aniston	-10.7952
▁hazard	-10.7952
▁impossible	-10.7952
▁ninth	-10.7952
▁cherubims	-10.7952
▁forfeit	-10.7952
▁tedious	-10.7952
▁blest	-10.7952
▁message	-10.7952
▁article	-10.7952
▁restrain	-10.7952
▁display	-10.7953
▁imagination	-10.7954
▁Percy	-10.7954
▁compos	-10.7954
▁race	-10.7955
▁spiritual	-10.7959
▁nakedness	-10.796
▁shepherds	-10.7962
▁Lead	-10.7963
▁falling	-10.7968
cus	-10.797
rom	-10.7971
▁Za	-10.7971
▁parted	-10.7976
▁perfection	-10.7986
▁Mu	-10.7994
▁writer	-10.7995
▁tried	-10.8002
▁produce	-10.8016
▁Romans	-10.8017
▁fro	-10.8017
For	-10.8028
rag	-10.8029
phi	-10.8037
▁grieved	-10.8048
▁suggest	-10.8054
iff	-10.8056
▁expect	-10.8065
▁7:1	-10.8066
▁reveal	-10.807
▁Hal	-10.8079
▁America	-10.8095
▁prefer	-10.8099
▁Tim	-10.8101
Z	-10.8104
▁seeth	-10.8106
▁Abigail	-10.8111
▁Balaam	-10.8111
▁DIOMEDES	-10.8111
▁JUSTICE	-10.8111
▁LUCENTIO	-10.8111
▁MERCUTIO	-10.8111
▁Oxford	-10.8111
▁behaviour	-10.8111
▁injury	-10.8111
▁murmur	-10.8111
▁smitten	-10.8111
▁sprinkle	-10.8111
▁thieves	-10.8111
▁Arcite	-10.8111
▁accident	-10.8111
▁adieu	-10.8111
▁immortal	-10.8111
▁beneath	-10.8111
▁forsworn	-10.8111
▁guess	-10.8111
▁foreign	-10.8111
▁Iago	-10.8111
▁Abram	-10.8112
▁description	-10.8112
▁instance	-10.8112
▁Cupid	-10.8112
▁Abner	-10.8112
▁physician	-10.8113
▁hungry	-10.8113
▁bush	-10.8113
▁evermore	-10.8114
▁2015	-10.8114
▁Saying	-10.8117
▁handmaid	-10.8117
▁girdle	-10.8123
▁Park	-10.8129
▁yon	-10.813
▁frail	-10.8131
OUR	-10.8133
▁tame	-10.8136
▁bag	-10.8148
▁shoulders	-10.8153
▁confounded	-10.8154
▁Az	-10.8157
▁witnesses	-10.8164
▁bade	-10.8165
▁hie	-10.8185
▁Spirits	-10.8196
▁Herod	-10.8202
▁Arch	-10.8209
▁overthrow	-10.8211
▁imm	-10.8213
▁hateful	-10.8216
▁Matt	-10.8221
▁assure	-10.8221
▁closed	-10.8223
▁appoint	-10.8225
▁visited	-10.8235
▁fix	-10.8235
hand	-10.8236
▁thinking	-10.8258
hearted	-10.8264
▁rend	-10.8271
▁ABIGAIL	-10.8272
▁CADE	-10.8272
▁Furtado	-10.8272
▁Markgraf	-10.8272
▁NORFOLK	-10.8272
▁Nebuchadnezzar	-10.8272
▁Proteus	-10.8272
▁Zedekiah	-10.8272
▁absolute	-10.8272
▁beautiful	-10.8272
▁dagger	-10.8272
▁divorce	-10.8272
▁indignation	-10.8272
▁rescue	-10.8272
▁stoop	-10.8272
▁Truly	-10.8272
▁giant	-10.8272
▁conditions	-10.8272
▁Soviet	-10.8273
▁Help	-10.8273
▁Italy	-10.8274
▁chair	-10.8274
ATE	-10.8275
▁crake	-10.8275
▁6:2	-10.8276
▁necessity	-10.8279
▁entertainment	-10.828
▁baptized	-10.8283
▁strip	-10.8283
▁backward	-10.8286
▁lightning	-10.8287
UN	-10.8291
▁assembled	-10.8291
▁election	-10.8295
▁Read	-10.8298
▁Maria	-10.8305
▁Act	-10.8312
▁Sub	-10.8312
▁amazed	-10.8324
▁dire	-10.8325
▁Bow	-10.8327
▁aged	-10.8337
▁preached	-10.8339
▁sung	-10.835
▁afterwards	-10.8365
▁Lie	-10.8372
▁advise	-10.8379
▁oppos	-10.8387
▁purge	-10.8388
▁remaining	-10.8394
▁Cast	-10.8395
▁bleed	-10.84
▁SE	-10.8404
▁certainly	-10.8421
▁magic	-10.8435
▁Damascus	-10.8436
▁GUIDERIUS	-10.8436
▁Hebrew	-10.8436
▁JAQUES	-10.8436
▁Norfolk	-10.8436
▁across	-10.8436
▁bloud	-10.8436
▁religion	-10.8436
▁sustain	-10.8436
▁2014	-10.8436
▁Malta	-10.8436
▁police	-10.8436
▁minor	-10.8436
▁retain	-10.8436
▁Sholay	-10.8436
▁Very	-10.8436
▁discern	-10.8437
▁vein	-10.8437
▁earlier	-10.8438
▁mask	-10.8438
▁development	-10.8438
▁preparation	-10.8439
▁Syrians	-10.8439
▁road	-10.844
▁scale	-10.8442
▁ago	-10.8443
▁Find	-10.845
iph	-10.845
▁tide	-10.8456
▁hunger	-10.8457
ina	-10.8466
▁strongly	-10.8468
tine	-10.8472
▁fixed	-10.8478
▁marked	-10.8491
▁apostles	-10.8514
▁singing	-10.8523
ker	-10.8532
▁rat	-10.8536
▁Mag	-10.8544
▁enquire	-10.8546
▁Ken	-10.8548
icious	-10.856
▁whereon	-10.8571
ARD	-10.8581
▁measures	-10.8588
join	-10.8596
▁recording	-10.8598
▁Mordecai	-10.8603
▁Mortimer	-10.8603
▁OFFICER	-10.8603
▁PAULINA	-10.8603
▁Paradise	-10.8603
▁RODERIGO	-10.8603
▁Rosalind	-10.8603
▁SATAN	-10.8603
▁Salisbury	-10.8603
▁Shakespeare	-10.8603
▁attention	-10.8603
▁carcase	-10.8603
▁easily	-10.8603
▁unleavened	-10.8603
▁AARON	-10.8603
▁Bashan	-10.8603
▁capital	-10.8603
▁multiply	-10.8603
▁Truth	-10.8603
▁Friar	-10.8603
▁floor	-10.8603
▁belief	-10.8603
▁dried	-10.8603
▁forehead	-10.8603
▁eastern	-10.8603
▁weather	-10.8603
▁regime	-10.8603
▁Marcus	-10.8603
▁feign	-10.8604
▁plate	-10.8608
▁boat	-10.8612
▁direction	-10.8619
▁wanted	-10.862
▁modesty	-10.8621
▁deem	-10.8622
▁drinking	-10.8624
▁organ	-10.8627
▁90	-10.8633
▁growth	-10.8638
▁limited	-10.865
pho	-10.8654
▁condemned	-10.8667
▁writers	-10.867
moth	-10.8684
yre	-10.8698
▁lieth	-10.8712
▁compare	-10.8715
▁attending	-10.8717
▁afflict	-10.8721
cut	-10.8722
▁arrows	-10.8731
▁Hur	-10.8732
▁tar	-10.8733
▁limbs	-10.8735
▁merchant	-10.8739
▁weapon	-10.8739
liness	-10.8751
zar	-10.8753
▁mention	-10.8756
▁gri	-10.876
▁Year	-10.8761
▁goest	-10.877
mate	-10.8771
▁BELARIUS	-10.8772
▁CLIFFORD	-10.8772
▁GREMIO	-10.8772
▁OPHELIA	-10.8772
▁PISANIO	-10.8772
▁SILVIA	-10.8772
▁furnish	-10.8772
▁pattern	-10.8772
▁principal	-10.8772
▁Juliet	-10.8772
▁disturb	-10.8772
▁Alack	-10.8772
▁Attendants	-10.8772
▁supply	-10.8772
▁threw	-10.8772
▁average	-10.8772
▁Brother	-10.8772
▁disposition	-10.8773
▁Pilate	-10.8773
▁Justice	-10.8773
▁acquaintance	-10.8773
▁Servant	-10.8774
▁freedom	-10.8774
▁exact	-10.8775
▁clay	-10.8776
▁Golden	-10.8778
▁Reign	-10.8781
▁center	-10.8793
▁endureth	-10.8793
▁meek	-10.8796
▁Gath	-10.8799
▁worked	-10.8806
▁directly	-10.8807
▁producer	-10.8813
▁professional	-10.8813
▁wonderful	-10.8813
▁talked	-10.8815
▁suggested	-10.8816
▁Germany	-10.882
▁Does	-10.8823
▁partake	-10.883
▁lap	-10.8833
▁fu	-10.8838
▁media	-10.8856
▁devoured	-10.8865
▁withdraw	-10.8869
▁Whiles	-10.8876
lia	-10.8886
▁likely	-10.8887
urn	-10.889
▁turning	-10.8891
lock	-10.8893
▁learning	-10.8895
q	-10.8913
▁scribe	-10.8915
▁je	-10.8918
▁thin	-10.8921
▁sayst	-10.8924
acy	-10.8926
▁bough	-10.8928
▁politic	-10.8928
▁kindly	-10.8931
▁effects	-10.8938
▁BAWD	-10.8945
▁CHIEF	-10.8945
▁HECTOR	-10.8945
▁Montague	-10.8945
▁POLIXENES	-10.8945
▁SLENDER	-10.8945
▁Silvia	-10.8945
▁VOLUMNIA	-10.8945
▁assault	-10.8945
▁betwixt	-10.8945
▁horror	-10.8945
▁leaving	-10.8945
▁merciful	-10.8945
▁precept	-10.8945
▁research	-10.8945
▁Krak	-10.8945
▁Esther	-10.8945
▁counsellor	-10.8945
▁rais	-10.8945
▁debate	-10.8945
ILIA	-10.8945
▁compel	-10.8945
▁Garden	-10.8945
▁luck	-10.8946
▁strengthen	-10.8946
UC	-10.8946
▁glove	-10.8947
▁hallow	-10.8947
▁Caius	-10.8947
▁wot	-10.8947
▁3:2	-10.8947
▁clock	-10.8947
▁surge	-10.8948
▁vol	-10.8948
▁calf	-10.8949
▁Pope	-10.8951
▁stout	-10.8951
▁invention	-10.8954
▁Times	-10.8957
▁continu	-10.8958
▁load	-10.8961
▁hinder	-10.8964
▁barr	-10.8967
▁critics	-10.897
▁armor	-10.8975
▁moving	-10.8984
▁originally	-10.8991
▁figures	-10.8992
▁fully	-10.901
▁risen	-10.9014
▁dwelleth	-10.9018
RD	-10.9033
▁promis	-10.9035
▁feature	-10.9036
pan	-10.9039
▁workers	-10.9042
▁bite	-10.9048
▁critic	-10.9048
star	-10.9051
▁fowls	-10.9051
▁spy	-10.9054
▁conclude	-10.9063
▁sour	-10.9064
▁perceived	-10.9102
▁Australia	-10.9105
▁doings	-10.911
▁blown	-10.9113
which	-10.9113
▁breaking	-10.9116
▁trip	-10.9118
▁marvel	-10.9119
▁ALBANY	-10.912
▁Demetrius	-10.912
▁NHL	-10.912
▁Northumberland	-10.912
▁Soldiers	-10.912
▁eventually	-10.912
▁iniquities	-10.912
▁probably	-10.912
▁ravish	-10.912
▁underground	-10.912
▁Benedick	-10.912
▁rotten	-10.912
▁swore	-10.912
▁cleave	-10.912
▁Eaton	-10.912
ograph	-10.912
▁afford	-10.912
▁oracle	-10.912
▁incline	-10.912
▁exchange	-10.912
▁pine	-10.9121
▁Thanks	-10.9121
▁Cannot	-10.9121
▁afar	-10.9121
▁Laban	-10.9121
▁steed	-10.9121
▁Julia	-10.9122
▁wight	-10.9122
▁vail	-10.9124
▁destin	-10.9125
▁expectation	-10.9125
▁falsehood	-10.9125
▁pomp	-10.9125
▁dearly	-10.9131
▁Name	-10.9131
▁paine	-10.9137
▁publication	-10.9139
▁LE	-10.914
▁deck	-10.9148
▁Age	-10.9151
▁Cur	-10.9151
▁conspir	-10.9154
▁citizens	-10.9174
▁minutes	-10.9177
▁assured	-10.9182
▁stayed	-10.9183
▁partly	-10.9204
▁restored	-10.9206
▁youngest	-10.9206
ado	-10.9208
▁graven	-10.9218
▁counter	-10.9225
▁Warr	-10.924
INE	-10.9244
▁designed	-10.9246
play	-10.9252
night	-10.9253
ria	-10.9257
▁Acc	-10.927
turn	-10.9279
▁serv	-10.9279
▁affections	-10.9292
BORZA	-10.9299
▁AJAX	-10.9299
▁CORNWALL	-10.9299
▁DUMAINE	-10.9299
▁Humphrey	-10.9299
▁LAWRENCE	-10.9299
▁Pennsylvania	-10.9299
▁Protector	-10.9299
▁Tybalt	-10.9299
▁archaeologist	-10.9299
▁conclusion	-10.9299
▁neglect	-10.9299
▁phrase	-10.9299
▁vocal	-10.9299
▁Geoff	-10.9299
▁sixteen	-10.9299
▁Honour	-10.9299
▁miserable	-10.9299
▁whisper	-10.9299
▁Street	-10.9299
▁creation	-10.9299
▁eighteen	-10.9299
▁riot	-10.9299
▁damsel	-10.9299
▁burst	-10.9299
▁refer	-10.9299
▁social	-10.9299
▁Bulls	-10.9299
▁visage	-10.9299
▁model	-10.9299
▁captives	-10.9299
▁Vol	-10.9299
▁Mac	-10.9299
▁subtle	-10.9301
▁Canaanites	-10.9301
▁Person	-10.9302
▁olive	-10.9302
▁herald	-10.9307
▁exist	-10.9307
▁builded	-10.9311
umber	-10.9312
▁Fall	-10.9314
▁measured	-10.9315
▁Shallow	-10.9316
ita	-10.9318
will	-10.9319
▁Just	-10.932
▁tire	-10.9321
▁lame	-10.9322
▁fairly	-10.9323
TO	-10.9324
▁demo	-10.9329
▁log	-10.933
▁caves	-10.9336
▁nearly	-10.9355
▁Off	-10.9359
▁sayest	-10.9396
yde	-10.94
▁smiles	-10.9401
▁pri	-10.9402
▁planted	-10.9408
▁crowned	-10.9415
▁eateth	-10.9439
▁complain	-10.9445
▁tradition	-10.9451
▁suffering	-10.9455
▁pillar	-10.946
▁odd	-10.9464
▁happie	-10.9468
(	-10.9474
▁Ke	-10.9476
volv	-10.9478
▁frequent	-10.948
▁AGAMEMNON	-10.948
▁HOLOFERNES	-10.948
▁Richmond	-10.948
▁delicate	-10.948
▁industry	-10.948
▁prophesied	-10.948
▁scripture	-10.948
▁petition	-10.948
▁regular	-10.948
▁ambition	-10.948
▁knit	-10.948
▁Judas	-10.948
▁climb	-10.948
▁brand	-10.948
▁proverb	-10.948
▁depth	-10.9481
▁gently	-10.9481
▁HIS	-10.9481
▁aloud	-10.9481
▁displeasure	-10.9481
▁infant	-10.9481
▁sexual	-10.9481
▁transform	-10.9481
▁gentlewoman	-10.9482
▁Andrew	-10.9482
▁continual	-10.9483
▁complexion	-10.9484
▁corruption	-10.9486
--,"	-10.9488
▁initially	-10.9491
▁therewith	-10.9496
▁Six	-10.9498
▁relate	-10.9498
ology	-10.95
▁beget	-10.9501
▁park	-10.9505
hur	-10.9505
▁49	-10.951
ability	-10.9512
▁Open	-10.9513
▁Kent	-10.9532
▁churches	-10.9533
▁Noah	-10.9546
▁bonds	-10.9558
▁fun	-10.956
▁Ram	-10.9588
▁wink	-10.9598
▁Lot	-10.96
▁coasts	-10.961
▁powerful	-10.9648
▁village	-10.9649
▁statute	-10.9649
▁victor	-10.9651
▁invent	-10.9656
▁fulfil	-10.9664
▁Apollo	-10.9666
▁Cressid	-10.9666
▁Institute	-10.9666
▁MARTIUS	-10.9666
▁candlestick	-10.9666
▁persecute	-10.9666
▁positive	-10.9666
▁pierce	-10.9666
▁sockets	-10.9666
▁ducats	-10.9666
▁uncover	-10.9666
▁Praise	-10.9666
▁egg	-10.9666
▁Wood	-10.9666
▁promote	-10.9666
▁Josiah	-10.9666
▁Work	-10.9666
▁central	-10.9666
▁resign	-10.9666
▁whoredom	-10.9666
▁involved	-10.9666
▁besought	-10.9666
▁flint	-10.9666
▁museum	-10.9667
▁storyline	-10.9667
▁OLD	-10.9667
▁Hastings	-10.9667
▁block	-10.9667
▁nice	-10.9668
▁property	-10.9669
▁2005	-10.9669
▁Game	-10.967
▁doest	-10.9671
▁Free	-10.9673
▁camels	-10.9675
▁Thine	-10.9676
▁wisely	-10.9676
▁lent	-10.9678
▁Gui	-10.9685
▁et	-10.9687
▁decided	-10.969
▁70	-10.9694
▁brains	-10.9705
▁Gate	-10.9707
NS	-10.9709
Priest	-10.9711
headed	-10.9714
▁wearie	-10.9716
▁cm	-10.9721
▁amount	-10.9731
▁repaired	-10.9736
▁directed	-10.9746
▁Home	-10.9747
▁accused	-10.9757
IA	-10.9757
▁crying	-10.9759
▁completed	-10.976
lier	-10.976
▁walking	-10.9764
▁sooth	-10.9765
▁clap	-10.9772
▁Youll	-10.9782
▁sealed	-10.9799
▁Mean	-10.9803
▁attended	-10.9811
▁conv	-10.9815
▁exceed	-10.9818
▁commander	-10.9834
mission	-10.9838
▁slight	-10.9845
▁admit	-10.9853
▁touching	-10.9853
▁Simeon	-10.9854
▁envious	-10.9854
▁CAIUS	-10.9854
▁DOGBERRY	-10.9854
▁Despite	-10.9854
▁HUBERT	-10.9854
▁PARIS	-10.9854
▁ROSS	-10.9854
▁Valkyria	-10.9854
▁Zadok	-10.9854
▁activities	-10.9854
▁constrain	-10.9854
▁eldest	-10.9854
▁poverty	-10.9854
▁shook	-10.9854
▁straw	-10.9854
▁Coleman	-10.9854
▁pause	-10.9854
▁situation	-10.9854
▁annual	-10.9854
▁nourish	-10.9854
▁void	-10.9854
▁lewd	-10.9854
▁Lamb	-10.9855
▁wedding	-10.9855
▁wroth	-10.9855
▁furious	-10.9855
ITCH	-10.9855
▁Western	-10.9856
▁Poland	-10.9857
▁tax	-10.9858
▁selfe	-10.9859
▁haunt	-10.986
back	-10.9861
▁filthy	-10.9861
▁halt	-10.9863
▁eke	-10.9863
▁hideous	-10.9864
▁eighth	-10.9867
▁fret	-10.9868
▁dedicated	-10.9872
▁(4	-10.9875
arie	-10.9878
▁Haman	-10.9879
faced	-10.9883
▁rig	-10.9883
▁47	-10.9885
▁Early	-10.9886
▁48	-10.9894
▁im	-10.9902
love	-10.9905
▁prime	-10.9916
▁Cry	-10.9917
aunce	-10.9917
▁executed	-10.9923
▁beguile	-10.9928
▁intended	-10.9934
▁reading	-10.9935
▁represented	-10.9937
▁proceeding	-10.9946
▁corners	-10.9957
▁liver	-10.9971
▁reed	-10.9982
▁defile	-10.9994
▁obeyed	-10.9995
▁Cal	-11.0014
ux	-11.0019
▁hung	-11.0022
▁growing	-11.0033
▁+	-11.0047
▁Andronicus	-11.0047
▁Beyond	-11.0047
▁CHARLES	-11.0047
▁FABIAN	-11.0047
▁GONERIL	-11.0047
▁GONZALO	-11.0047
▁Jehoiada	-11.0047
▁KNIGHT	-11.0047
▁apparent	-11.0047
▁appeal	-11.0047
▁bounty	-11.0047
▁rhyme	-11.0047
▁satisfy	-11.0047
▁sceptre	-11.0047
▁structure	-11.0047
▁sufficient	-11.0047
▁symbol	-11.0047
▁utmost	-11.0047
▁Jupiter	-11.0047
▁Trojan	-11.0047
▁Macbeth	-11.0047
▁liberal	-11.0047
▁Exeter	-11.0047
▁absent	-11.0047
▁attract	-11.0047
▁distance	-11.0047
▁Club	-11.0047
▁adultery	-11.0047
▁strict	-11.0047
▁sackcloth	-11.0047
▁Better	-11.0047
▁grapes	-11.0047
▁plum	-11.0047
▁Water	-11.0047
▁Morn	-11.0048
▁wore	-11.0048
▁capture	-11.0048
▁guile	-11.0049
▁address	-11.0049
▁straightway	-11.0049
▁inches	-11.005
▁hidden	-11.005
▁8:2	-11.0051
▁hedge	-11.0051
▁fever	-11.0052
▁prior	-11.0053
▁WOR	-11.0055
▁wipe	-11.0056
▁crest	-11.0067
▁odds	-11.0069
▁gladness	-11.007
▁Comp	-11.0072
▁additional	-11.0087
▁critical	-11.0097
▁heareth	-11.01
▁cal	-11.0108
▁stab	-11.0108
▁swallowed	-11.0109
▁larger	-11.0112
▁prevailed	-11.0117
cast	-11.0122
▁rode	-11.0122
▁fin	-11.0134
▁doubtful	-11.0143
lay	-11.0143
▁swa	-11.0147
▁sinners	-11.015
▁Seek	-11.0153
▁counted	-11.0169
▁Rev	-11.0179
▁Den	-11.0181
▁conceive	-11.0198
▁morn	-11.0207
▁profession	-11.0209
▁Francis	-11.0241
▁Antioch	-11.0243
▁Elizabeth	-11.0243
▁reflect	-11.0243
▁CALIBAN	-11.0243
▁Ishmael	-11.0243
▁KATHERINE	-11.0243
▁LYSANDER	-11.0243
▁MIRANDA	-11.0243
▁SOMERSET	-11.0243
▁Tarquin	-11.0243
▁circle	-11.0243
▁collection	-11.0243
▁conjure	-11.0243
▁decision	-11.0243
▁glorified	-11.0243
▁intelligence	-11.0243
▁memorial	-11.0243
▁relative	-11.0243
▁stubborn	-11.0243
IGHT	-11.0243
▁ephod	-11.0243
▁specific	-11.0243
▁wandring	-11.0243
▁ocean	-11.0243
▁hark	-11.0243
▁suppli	-11.0243
▁discharge	-11.0243
▁grain	-11.0243
▁improve	-11.0243
▁Sarah	-11.0244
▁Rather	-11.0244
▁mould	-11.0245
▁18:2	-11.0245
NG	-11.0245
▁disperse	-11.0246
▁community	-11.0246
▁requite	-11.0246
▁Serv	-11.0246
▁deaf	-11.0247
▁grand	-11.0247
▁Seven	-11.0248
▁Beast	-11.025
▁opposite	-11.0252
▁laughter	-11.0252
▁Russian	-11.0252
▁courtier	-11.0253
▁Stone	-11.0255
▁brows	-11.0256
▁rib	-11.0256
▁beams	-11.0264
▁hum	-11.0266
ould	-11.0274
▁features	-11.0274
▁Angels	-11.0276
▁Starr	-11.0277
▁merchants	-11.0282
▁acknowledge	-11.0295
▁obtained	-11.0296
▁bay	-11.0302
▁concluded	-11.0307
▁HE	-11.031
▁arrived	-11.0313
▁pate	-11.0317
▁22:1	-11.032
▁Bay	-11.0327
not	-11.0335
▁liest	-11.0342
▁paths	-11.0369
▁mate	-11.0369
▁fund	-11.0371
▁ev	-11.0379
▁sober	-11.038
▁brown	-11.0381
▁spit	-11.0382
▁pursued	-11.0399
quo	-11.0435
ME	-11.0438
▁fairer	-11.0439
▁Gar	-11.044
▁ARIEL	-11.0443
▁CLARENCE	-11.0443
▁Chicago	-11.0443
▁Emperor	-11.0443
▁Naphtali	-11.0443
▁Pericles	-11.0443
▁ROSENCRANTZ	-11.0443
▁Rehoboam	-11.0443
▁SATURNINUS	-11.0443
▁TAMORA	-11.0443
▁discretion	-11.0443
▁magazine	-11.0443
▁rebellious	-11.0443
▁unhappy	-11.0443
▁conquest	-11.0443
▁distract	-11.0443
▁enchant	-11.0443
▁enlarge	-11.0443
▁excess	-11.0443
▁martial	-11.0443
▁survive	-11.0443
▁reaction	-11.0443
▁method	-11.0443
▁Lewis	-11.0443
▁yellow	-11.0443
▁Del	-11.0443
▁scoring	-11.0443
▁becoming	-11.0443
▁percent	-11.0444
▁baby	-11.0444
▁link	-11.0444
even	-11.0446
▁farther	-11.0448
▁thigh	-11.0448
▁pan	-11.0449
▁Whosoever	-11.045
▁Fire	-11.0452
▁vent	-11.0463
▁LI	-11.0471
▁175	-11.0471
▁dame	-11.0471
ulous	-11.0476
▁everyone	-11.0477
▁Princess	-11.0479
▁Soft	-11.048
ANT	-11.0485
▁friendly	-11.0487
▁nun	-11.0488
▁persuaded	-11.0498
▁roaring	-11.0508
▁MAR	-11.0512
▁safely	-11.0512
▁amongst	-11.0518
▁deer	-11.0535
▁soil	-11.0559
▁nu	-11.0585
▁notice	-11.0591
▁shoes	-11.0606
▁ni	-11.061
▁Awards	-11.0611
▁vaine	-11.0628
▁connect	-11.0632
▁Sig	-11.0636
▁mutual	-11.0647
▁Azariah	-11.0647
▁BOTTOM	-11.0647
▁Chevaliers	-11.0647
▁EXETER	-11.0647
▁HERMIA	-11.0647
▁Jezreel	-11.0647
▁LUCETTA	-11.0647
▁Republic	-11.0647
▁Society	-11.0647
▁abandon	-11.0647
▁beauteous	-11.0647
▁ceremony	-11.0647
▁enterprise	-11.0647
▁eunuch	-11.0647
▁exploit	-11.0647
▁holiday	-11.0647
▁mercies	-11.0647
▁nephew	-11.0647
▁obedient	-11.0647
▁president	-11.0647
▁program	-11.0647
▁resurrection	-11.0647
▁savage	-11.0647
▁vanish	-11.0647
▁vantage	-11.0647
▁Howbeit	-11.0647
▁trifle	-11.0647
▁Green	-11.0647
▁extra	-11.0647
▁prompt	-11.0647
▁vast	-11.0647
▁conference	-11.0647
▁function	-11.0647
▁Plain	-11.0648
▁holiness	-11.0648
▁hatred	-11.0649
▁Field	-11.0649
▁12:2	-11.0649
▁Dame	-11.065
▁assay	-11.065
▁Joash	-11.065
▁justified	-11.065
▁peak	-11.0651
IE	-11.0652
."]	-11.0654
▁Eye	-11.0655
▁plight	-11.0655
▁46	-11.0657
▁Sodom	-11.0659
▁goat	-11.066
▁active	-11.0661
▁listen	-11.0673
▁boil	-11.0673
▁oppressed	-11.0683
▁heave	-11.0692
▁rating	-11.0696
▁putting	-11.0698
▁heav	-11.07
▁HERO	-11.0709
▁transgressions	-11.0709
▁undo	-11.0745
▁whereas	-11.075
▁Seem	-11.0751
▁woeful	-11.0772
▁forgiven	-11.0772
take	-11.0777
▁Hum	-11.0778
▁needy	-11.0782
▁persuade	-11.0798
▁wishes	-11.0803
BE	-11.081
ALL	-11.0835
▁TH	-11.0849
▁ARVIRAGUS	-11.0855
▁Catechism	-11.0855
▁DIANA	-11.0855
▁FLAVIUS	-11.0855
▁Gibeah	-11.0855
▁Hittite	-11.0855
▁LORENZO	-11.0855
▁Tintin	-11.0855
▁accursed	-11.0855
▁adversaries	-11.0855
▁molten	-11.0855
▁multiplied	-11.0855
▁perforce	-11.0855
▁slumber	-11.0855
▁unnatural	-11.0855
▁Hermia	-11.0855
▁pertain	-11.0855
▁submit	-11.0855
▁Priam	-11.0855
▁bruise	-11.0855
▁target	-11.0855
▁porch	-11.0855
▁throng	-11.0855
▁Film	-11.0855
▁dozen	-11.0855
▁western	-11.0856
▁pleasing	-11.0856
▁Jesse	-11.0856
▁rust	-11.0858
▁afore	-11.0862
▁corse	-11.0864
▁whereby	-11.0872
▁rejected	-11.0874
▁Romanian	-11.0874
▁Dead	-11.0875
▁acquainted	-11.0876
▁Run	-11.0877
▁Fei	-11.0878
▁Noble	-11.0878
▁Persia	-11.0882
▁proposed	-11.0887
▁bleeding	-11.0901
▁historical	-11.0905
▁creeping	-11.0905
▁mentioned	-11.0906
▁Fly	-11.0913
▁employed	-11.0914
▁featured	-11.0923
▁Pat	-11.0925
▁operate	-11.0929
▁ban	-11.0935
KE	-11.0941
▁compassed	-11.0945
inch	-11.0945
▁weeds	-11.0946
▁Def	-11.0948
▁comforted	-11.0958
▁largely	-11.0967
▁provoked	-11.0971
▁trusted	-11.0972
EST	-11.0979
▁torn	-11.0991
▁lamps	-11.1008
▁describe	-11.1013
▁lately	-11.1033
IF	-11.1034
▁swell	-11.1038
piece	-11.1061
▁sounded	-11.1066
▁Academy	-11.1068
▁Bianca	-11.1068
▁Clarkson	-11.1068
▁Douglas	-11.1068
▁Kohath	-11.1068
▁Leonato	-11.1068
▁PHILIP	-11.1068
▁PUCELLE	-11.1068
▁SHEPHE	-11.1068
▁ambassador	-11.1068
▁apprehend	-11.1068
▁discontent	-11.1068
▁distinguish	-11.1068
▁draft	-11.1068
▁estimation	-11.1068
▁fourscore	-11.1068
▁horrible	-11.1068
▁leukemia	-11.1068
▁statue	-11.1068
▁stumble	-11.1068
▁Cloud	-11.1068
▁Frank	-11.1068
▁Samson	-11.1068
▁empress	-11.1068
▁exhibit	-11.1068
▁Above	-11.1068
▁lodging	-11.1068
▁Venus	-11.1068
▁harsh	-11.1068
▁steward	-11.1068
▁volume	-11.1068
▁carved	-11.1068
▁indicate	-11.1068
▁southern	-11.1068
▁THAT	-11.1068
▁mystery	-11.1068
▁taint	-11.1069
▁11:2	-11.107
▁2003	-11.1071
▁candle	-11.1072
▁bald	-11.1072
▁10:2	-11.1072
▁Things	-11.1073
▁Director	-11.1075
▁recent	-11.1075
▁thread	-11.1075
▁pasture	-11.1079
▁saint	-11.108
▁cubit	-11.108
▁mightie	-11.1084
▁weakness	-11.1088
▁Cup	-11.1089
▁estimated	-11.1092
▁Mill	-11.1099
▁TV	-11.11
▁fur	-11.1101
▁complaint	-11.1109
▁exceedingly	-11.111
▁ruled	-11.1112
▁avenge	-11.1112
▁SH	-11.112
▁Die	-11.1137
▁Canst	-11.1144
put	-11.1153
that	-11.1169
▁suitor	-11.1179
▁("	-11.1181
▁Mah	-11.1189
▁mile	-11.1202
▁dismiss	-11.1207
▁lesser	-11.1238
▁observed	-11.1243
▁extend	-11.1244
▁justly	-11.1248
▁chap	-11.1274
▁200	-11.128
▁AUFIDIUS	-11.1285
▁Adieu	-11.1285
▁BIANCA	-11.1285
▁CHAMBERLAIN	-11.1285
▁Cyprus	-11.1285
▁FLORIZEL	-11.1285
▁Grecian	-11.1285
▁Zebulun	-11.1285
▁censure	-11.1285
▁discipline	-11.1285
▁effort	-11.1285
▁invisible	-11.1285
▁leprosy	-11.1285
▁newspaper	-11.1285
▁oclock	-11.1285
▁Navy	-11.1285
▁pocket	-11.1285
▁polluted	-11.1285
▁proportion	-11.1285
▁rival	-11.1285
▁timber	-11.1285
▁burial	-11.1285
▁rebellion	-11.1285
▁forsooth	-11.1285
▁scope	-11.1285
▁usually	-11.1285
▁cited	-11.1285
▁detect	-11.1286
▁Week	-11.1286
▁tithe	-11.1286
▁monarch	-11.1286
▁Scotland	-11.1286
▁Short	-11.1286
▁Deep	-11.1287
▁detail	-11.1287
▁repeat	-11.1287
▁available	-11.1287
▁Mount	-11.1288
▁failed	-11.1288
▁Hereford	-11.1289
▁exile	-11.1292
▁torch	-11.1294
▁spell	-11.1295
▁waited	-11.1295
▁consult	-11.1295
▁poll	-11.1302
▁troop	-11.1302
▁element	-11.1302
▁Pass	-11.1304
▁partner	-11.1305
▁Ph	-11.1321
▁chest	-11.1322
▁whe	-11.1328
▁strengthened	-11.1338
▁reli	-11.1338
▁affected	-11.1344
▁Moon	-11.1344
▁imagine	-11.1346
▁Add	-11.137
!_	-11.1371
▁drowned	-11.1373
▁separated	-11.1378
▁issued	-11.1378
▁expressed	-11.1396
▁plac	-11.1405
▁plea	-11.1423
pher	-11.1428
ipped	-11.1435
▁RE	-11.1449
ELL	-11.145
pence	-11.1455
▁Head	-11.1465
▁keepeth	-11.1489
duction	-11.15
wood	-11.1501
▁loyal	-11.1507
▁AENEAS	-11.1507
▁Bassanio	-11.1507
▁Burgundy	-11.1507
▁Capitol	-11.1507
▁Cleopatra	-11.1507
▁Cullen	-11.1507
▁Dershowitz	-11.1507
▁ELEANOR	-11.1507
▁GEORGE	-11.1507
▁Gibeon	-11.1507
▁LAUNCELET	-11.1507
▁Mephistophilis	-11.1507
▁Plantagenet	-11.1507
▁Sleep	-11.1507
▁archaeological	-11.1507
▁cuckold	-11.1507
▁remorse	-11.1507
▁survey	-11.1507
▁tribune	-11.1507
▁twentieth	-11.1507
▁vault	-11.1507
▁vouchsafe	-11.1507
▁Virgin	-11.1507
▁signify	-11.1507
▁Welsh	-11.1508
▁blew	-11.1508
▁Ladies	-11.1508
▁bomb	-11.1508
▁stopped	-11.1508
▁keen	-11.1508
▁beware	-11.1508
▁mankind	-11.1508
▁Walk	-11.1508
▁heavily	-11.1508
ject	-11.1509
▁Battle	-11.1509
▁garland	-11.1509
▁Town	-11.151
▁deceitful	-11.1511
▁Spain	-11.1511
▁pipe	-11.1512
▁oppression	-11.1513
▁assist	-11.1513
▁banishment	-11.1513
▁confine	-11.1513
▁1:3	-11.1514
▁folk	-11.1516
▁attendant	-11.1517
▁Plan	-11.1521
▁moist	-11.1521
▁introduced	-11.1522
▁Race	-11.1524
▁Asher	-11.1525
▁Else	-11.1526
▁tailor	-11.153
▁Diana	-11.1532
▁Tut	-11.1539
▁deity	-11.1539
▁previously	-11.1541
▁160	-11.1542
▁Mont	-11.1556
▁180	-11.1557
▁pursu	-11.1559
▁kissed	-11.156
▁toucheth	-11.156
▁rejoiced	-11.1562
▁butcher	-11.1563
▁chin	-11.1563
▁char	-11.1568
▁Following	-11.1573
▁fer	-11.1573
▁lip	-11.1575
▁Whence	-11.1576
▁conducted	-11.1576
▁Anon	-11.1577
ski	-11.1578
▁largest	-11.1581
▁21:1	-11.1581
▁believeth	-11.1584
▁obscure	-11.1589
▁tempted	-11.159
gged	-11.1592
▁chronicles	-11.1595
▁abound	-11.1601
AND	-11.1614
▁fatherless	-11.162
▁sale	-11.1622
▁Pole	-11.1634
▁ranked	-11.1642
▁boar	-11.1696
▁--	-11.1702
▁hind	-11.1713
▁wanting	-11.1727
What	-11.1728
▁herds	-11.1734
▁Association	-11.1735
▁BELLAMIRA	-11.1735
▁Beatrice	-11.1735
▁Camillo	-11.1735
▁College	-11.1735
▁Issachar	-11.1735
▁JACOMO	-11.1735
▁LUCIANA	-11.1735
▁Lucrece	-11.1735
▁Pyramus	-11.1735
▁Serpent	-11.1735
▁Stanley	-11.1735
▁consecrate	-11.1735
▁fornication	-11.1735
▁increasing	-11.1735
▁innocence	-11.1735
▁international	-11.1735
▁lieutenant	-11.1735
▁marvellous	-11.1735
▁stoln	-11.1735
▁Commend	-11.1735
▁Gideon	-11.1735
▁Spanish	-11.1735
▁blunt	-11.1735
▁COUNTRYM	-11.1735
▁Madero	-11.1735
▁1990	-11.1735
▁balance	-11.1735
▁Strike	-11.1735
▁swim	-11.1735
▁shining	-11.1735
▁devote	-11.1735
▁detest	-11.1735
▁honor	-11.1735
▁reprove	-11.1735
▁relief	-11.1735
▁busy	-11.1735
▁Barker	-11.1735
▁Gentlemen	-11.1736
▁Grand	-11.1737
quoth	-11.1737
▁coz	-11.1737
▁assume	-11.1738
▁twill	-11.1739
▁2004	-11.1739
▁stink	-11.174
▁dart	-11.1742
▁circum	-11.1744
▁smiling	-11.1747
▁reform	-11.1747
essa	-11.1748
▁countrymen	-11.1748
▁unfold	-11.1748
▁mill	-11.1753
eous	-11.1756
▁approve	-11.1756
▁shekel	-11.1762
▁(5	-11.1769
▁accomplished	-11.1775
▁Sb	-11.1778
more	-11.1783
▁Phil	-11.1786
▁setting	-11.1786
▁Div	-11.1796
▁Sure	-11.1799
▁lusty	-11.1807
▁ability	-11.1808
▁aboard	-11.1813
▁Pet	-11.1814
▁mixed	-11.1815
▁hoar	-11.1818
liest	-11.1844
▁amiss	-11.1845
vant	-11.1853
▁retired	-11.1857
miss	-11.1884
▁smaller	-11.1884
range	-11.189
▁oppress	-11.1899
▁coup	-11.1904
▁thereto	-11.1926
▁accomplish	-11.1926
come	-11.1946
▁file	-11.1947
▁dre	-11.195
woman	-11.1959
Come	-11.1963
▁Midian	-11.1966
▁BOY	-11.1967
▁Ethiopia	-11.1967
▁Answer	-11.1967
▁Bethlehem	-11.1967
▁Desdemona	-11.1967
▁Except	-11.1967
▁Governor	-11.1967
▁Judaea	-11.1967
▁Lavinia	-11.1967
▁Lucentio	-11.1967
▁Lucifer	-11.1967
▁Lysander	-11.1967
▁Pistol	-11.1967
▁SIMONIDES	-11.1967
▁anguish	-11.1967
▁bridegroom	-11.1967
▁cardinal	-11.1967
▁chastity	-11.1967
▁concubine	-11.1967
▁diamond	-11.1967
▁furnace	-11.1967
▁primary	-11.1967
▁studies	-11.1967
▁suspicion	-11.1967
▁uncircumcised	-11.1967
▁Diomed	-11.1967
▁appeer	-11.1967
▁drug	-11.1967
▁unworthy	-11.1967
▁Trust	-11.1967
▁Balak	-11.1967
▁Center	-11.1967
▁owl	-11.1967
▁spices	-11.1967
▁trench	-11.1967
▁focus	-11.1968
▁Tonin	-11.1968
▁Museum	-11.1969
▁Divine	-11.1969
▁prolong	-11.1969
▁penny	-11.197
▁CONSTA	-11.1971
▁playoff	-11.1972
▁actress	-11.1973
▁eastward	-11.1974
▁4:3	-11.1974
▁winning	-11.1975
▁European	-11.1977
▁chapel	-11.1979
▁earned	-11.1979
▁ladyship	-11.1979
▁Lake	-11.1981
▁uncleanness	-11.1986
▁talking	-11.1991
▁slightly	-11.1992
▁feat	-11.1995
▁withered	-11.1997
▁trim	-11.2003
▁engaged	-11.2004
▁invited	-11.2006
▁Ask	-11.2022
▁losses	-11.2026
maid	-11.2041
OVE	-11.2048
▁advised	-11.2049
▁prevented	-11.2053
OTH	-11.2056
▁suppose	-11.2067
▁Didst	-11.2072
▁farm	-11.2079
▁engine	-11.2089
col	-11.2093
▁Star	-11.2104
▁deserved	-11.2118
▁din	-11.212
▁sown	-11.2141
▁plucked	-11.2146
▁bake	-11.2156
▁dote	-11.2187
▁Worth	-11.219
▁deceiv	-11.2191
▁stole	-11.2192
▁passeth	-11.2192
▁Area	-11.2193
▁Gro	-11.2196
▁Ahaz	-11.2204
ASIDE	-11.2205
▁ALONSO	-11.2205
▁Creature	-11.2205
▁LONGAVILLE	-11.2205
▁Naples	-11.2205
▁Petruchio	-11.2205
▁Redcross	-11.2205
▁ambitious	-11.2205
▁conversation	-11.2205
▁harbour	-11.2205
▁nuclear	-11.2205
▁perverse	-11.2205
▁privilege	-11.2205
▁response	-11.2205
▁suffice	-11.2205
▁tyranny	-11.2205
▁wrinkle	-11.2205
▁Benaiah	-11.2205
▁Bishop	-11.2205
▁Nurse	-11.2205
▁Shimei	-11.2205
▁Temple	-11.2205
▁oblation	-11.2205
▁overflow	-11.2205
▁underneath	-11.2205
▁brick	-11.2205
▁spleen	-11.2205
▁Eastern	-11.2205
▁funeral	-11.2206
▁sitteth	-11.2206
▁asunder	-11.2206
▁discuss	-11.2206
▁adorn	-11.2206
▁Omar	-11.2206
▁digged	-11.2206
▁leaf	-11.2207
▁Jackets	-11.2207
▁grey	-11.2208
▁outrage	-11.2208
▁Orlando	-11.2208
▁choke	-11.2209
▁2001	-11.221
▁11:3	-11.221
▁10:3	-11.2211
▁curious	-11.2213
▁fellowship	-11.2213
▁painting	-11.2214
▁metres	-11.2214
taking	-11.2215
▁nobility	-11.2216
▁Cap	-11.2218
▁lamentation	-11.2219
▁prov	-11.2229
▁BON	-11.223
▁guiltless	-11.223
▁pawn	-11.2233
▁discovery	-11.224
▁heartily	-11.2242
▁inspired	-11.2243
▁ordained	-11.2243
▁55	-11.2249
▁184	-11.2253
▁serving	-11.2256
▁reply	-11.2257
▁expected	-11.2268
▁speeches	-11.2274
▁descended	-11.2274
▁approved	-11.2287
▁walketh	-11.2291
▁Fit	-11.2308
▁seeketh	-11.2332
▁careless	-11.2338
▁bath	-11.2382
▁fir	-11.2389
▁rein	-11.239
▁musical	-11.2399
▁transgress	-11.2403
▁mocked	-11.2407
▁convert	-11.2408
▁Chi	-11.2418
charg	-11.2422
▁consul	-11.2438
▁Post	-11.2439
chamber	-11.2442
fellow	-11.2442
▁champion	-11.2448
▁Allosaurus	-11.2449
▁CARDINAL	-11.2449
▁CASCA	-11.2449
▁Central	-11.2449
▁Division	-11.2449
▁Fernandez	-11.2449
▁Gilgal	-11.2449
▁HIPPOLYTA	-11.2449
▁Hercules	-11.2449
▁LYSIMACHUS	-11.2449
▁MALCOLM	-11.2449
▁Orleans	-11.2449
▁Padua	-11.2449
▁People	-11.2449
▁STANLEY	-11.2449
▁Windsor	-11.2449
▁announced	-11.2449
▁circumcised	-11.2449
▁conflict	-11.2449
▁hypocrite	-11.2449
▁jazz	-11.2449
▁magnifi	-11.2449
▁skirt	-11.2449
▁surfeit	-11.2449
▁1996	-11.2449
▁Shemaiah	-11.2449
▁dainty	-11.2449
▁Swear	-11.2449
▁assigned	-11.2449
▁cherish	-11.2449
▁recall	-11.2449
▁problem	-11.2449
▁flaming	-11.2449
▁Cousin	-11.2449
▁forlorn	-11.2449
▁Present	-11.2449
▁signior	-11.2449
▁stalk	-11.2449
▁silly	-11.2449
▁basketball	-11.2449
▁Chief	-11.245
▁forsook	-11.245
▁fertil	-11.245
▁22:2	-11.245
▁Write	-11.245
▁dawn	-11.245
▁culture	-11.2451
▁GOWER	-11.2451
▁quake	-11.2453
▁2002	-11.2453
▁VII	-11.2454
▁cheerful	-11.2457
▁Spring	-11.2457
▁agent	-11.2463
▁axe	-11.2466
▁Aire	-11.2466
▁cozen	-11.2466
▁string	-11.247
▁thankful	-11.2471
▁51	-11.2471
▁moreover	-11.2474
▁copy	-11.2474
▁haply	-11.2483
▁hook	-11.2484
▁partial	-11.2487
▁fishes	-11.2488
▁planet	-11.2491
▁idol	-11.2494
▁era	-11.2514
▁color	-11.2516
▁greeting	-11.2519
gate	-11.252
▁revive	-11.253
▁kisses	-11.2534
▁Bless	-11.2543
▁waxed	-11.2547
gone	-11.2549
▁bravely	-11.256
ball	-11.2566
▁rot	-11.2582
▁supported	-11.2598
▁claimed	-11.2606
▁Award	-11.2623
▁MA	-11.2633
▁remov	-11.2645
▁exalt	-11.2658
▁whit	-11.266
▁Asia	-11.2673
cock	-11.2678
▁Africa	-11.2684
▁dine	-11.2689
word	-11.269
fast	-11.2693
wife	-11.2695
▁correct	-11.2696
▁ALCIBIADES	-11.2699
▁ARCHBISHOP	-11.2699
▁Amaziah	-11.2699
▁Antimony	-11.2699
▁Aufidius	-11.2699
▁BIONDELLO	-11.2699
▁BORACHIO	-11.2699
▁Billboard	-11.2699
▁CAPTAIN	-11.2699
▁Ephesus	-11.2699
▁FOURTH	-11.2699
▁GREY	-11.2699
▁Mexico	-11.2699
▁Posthumus	-11.2699
▁TRINCULO	-11.2699
▁Zechariah	-11.2699
▁allegory	-11.2699
▁attribute	-11.2699
▁companies	-11.2699
▁disorder	-11.2699
▁document	-11.2699
▁exhort	-11.2699
▁languish	-11.2699
▁occupation	-11.2699
▁opportunity	-11.2699
▁participate	-11.2699
▁perfume	-11.2699
▁progress	-11.2699
▁satisfaction	-11.2699
▁scourge	-11.2699
▁seldom	-11.2699
▁vassal	-11.2699
▁wreath	-11.2699
▁Jebusite	-11.2699
▁cloak	-11.2699
▁horrid	-11.2699
▁smart	-11.2699
▁procure	-11.2699
▁Several	-11.2699
▁Judge	-11.2699
▁Women	-11.2699
▁Woman	-11.2699
▁barley	-11.2699
▁ugly	-11.2699
▁Milan	-11.2699
▁crush	-11.2699
▁tutor	-11.2699
▁label	-11.2699
▁darst	-11.2699
▁Merari	-11.2699
▁heritage	-11.2699
▁animal	-11.27
▁Word	-11.27
▁reproof	-11.27
▁Department	-11.2701
▁descent	-11.2701
▁liking	-11.2701
▁referred	-11.2701
▁authorities	-11.2701
▁whoreson	-11.2701
▁Making	-11.2702
▁Portia	-11.2702
▁cords	-11.2703
▁spore	-11.2707
▁Camp	-11.2707
▁Seir	-11.2713
▁FOR	-11.2713
▁stolen	-11.2714
▁span	-11.2719
▁needful	-11.2724
▁liar	-11.2724
▁shrewd	-11.273
▁fenced	-11.273
▁bass	-11.2739
▁traditional	-11.274
▁120	-11.2744
horn	-11.2748
▁shoe	-11.275
▁Theseus	-11.2763
▁52	-11.2765
▁compared	-11.2784
▁Host	-11.2788
▁Sheba	-11.279
IVE	-11.2801
MAN	-11.2803
term	-11.2818
▁youthful	-11.2821
▁engineer	-11.2823
ught	-11.2825
▁secretly	-11.285
▁lowly	-11.2858
▁regarded	-11.286
▁vowed	-11.287
hil	-11.2899
▁decline	-11.29
▁dismay	-11.2914
▁accord	-11.292
▁sinful	-11.293
▁chid	-11.2941
▁MAN	-11.2947
▁origin	-11.2947
▁determine	-11.2949
▁favor	-11.2954
▁cherub	-11.2956
▁Attend	-11.2956
▁carriage	-11.2956
▁choler	-11.2956
▁jaw	-11.2956
▁AUMERLE	-11.2956
▁BOULT	-11.2956
▁Coldrum	-11.2956
▁Columbus	-11.2956
▁Coriolanus	-11.2956
▁Greece	-11.2956
▁LODOWICK	-11.2956
▁NESTOR	-11.2956
▁OLIVER	-11.2956
▁OSWALD	-11.2956
▁PATROCLUS	-11.2956
▁QUINCE	-11.2956
▁WESTMORELAND	-11.2956
▁WOOER	-11.2956
▁Wrapped	-11.2956
▁advocate	-11.2956
▁archaeology	-11.2956
▁blaspheme	-11.2956
▁chastise	-11.2956
▁crucified	-11.2956
▁cultural	-11.2956
▁dialogue	-11.2956
▁garrison	-11.2956
▁hurricane	-11.2956
▁prominent	-11.2956
▁promotion	-11.2956
▁resemble	-11.2956
▁resolution	-11.2956
▁rumour	-11.2956
▁sculpture	-11.2956
▁security	-11.2956
▁testimonies	-11.2956
▁traffic	-11.2956
▁tumult	-11.2956
▁whirlwind	-11.2956
▁wrack	-11.2956
▁Thunder	-11.2956
▁assurance	-11.2956
▁expedition	-11.2956
▁pitiful	-11.2956
▁combined	-11.2956
▁imitate	-11.2956
▁Awake	-11.2956
▁Reason	-11.2956
▁historian	-11.2956
▁raging	-11.2956
▁raw	-11.2956
▁beautie	-11.2956
▁manager	-11.2957
▁uttermost	-11.2957
▁composition	-11.2957
▁anchor	-11.2957
▁wholly	-11.2957
▁duties	-11.2957
▁chess	-11.2957
▁nobly	-11.2958
▁Loose	-11.2958
▁edition	-11.2958
▁prosperous	-11.296
▁drove	-11.2962
END	-11.2963
▁losing	-11.2964
▁repentance	-11.2964
▁stray	-11.2964
▁canker	-11.2968
▁starve	-11.2975
▁exit	-11.298
▁brightness	-11.2981
▁drama	-11.2987
▁unlike	-11.2991
▁remaineth	-11.3001
▁lowest	-11.3002
town	-11.3004
▁cleansed	-11.3011
▁limb	-11.3014
▁Half	-11.3016
▁opposed	-11.3021
▁instructed	-11.3026
▁mantle	-11.3034
▁borrowed	-11.3037
▁ME	-11.304
▁corrupted	-11.3045
▁proclaimed	-11.3051
▁foil	-11.3054
▁hue	-11.3072
▁ope	-11.3078
bound	-11.3081
▁villainy	-11.3084
▁FR	-11.3092
▁MER	-11.31
struction	-11.3101
▁attempted	-11.3101
▁comb	-11.3113
ISH	-11.3135
▁prepar	-11.3145
▁dispose	-11.3146
▁ordain	-11.3179
▁pie	-11.3188
▁Victoria	-11.3202
class	-11.3212
Star	-11.3213
colour	-11.3214
▁differ	-11.3217
scription	-11.3217
▁occur	-11.3218
▁Agamemnon	-11.3219
▁Creutz	-11.3219
▁Dramatis	-11.3219
▁Empire	-11.3219
▁FRENCH	-11.3219
▁MERCHANT	-11.3219
▁Smith	-11.3219
▁astonished	-11.3219
▁brawl	-11.3219
▁confident	-11.3219
▁convenient	-11.3219
▁dancing	-11.3219
▁examine	-11.3219
▁handkerchief	-11.3219
▁notwithstanding	-11.3219
▁prohibit	-11.3219
▁prophecy	-11.3219
▁provision	-11.3219
▁qualities	-11.3219
▁ragged	-11.3219
▁testify	-11.3219
▁variety	-11.3219
▁vertue	-11.3219
▁voyage	-11.3219
▁1939	-11.3219
▁Heshbon	-11.3219
▁Receive	-11.3219
▁dissolve	-11.3219
▁seventeen	-11.3219
▁1940	-11.3219
▁1944	-11.3219
▁blade	-11.3219
▁tarried	-11.3219
▁apply	-11.3219
▁swine	-11.3219
▁pool	-11.3219
▁False	-11.3219
▁lyric	-11.3219
▁overlaid	-11.3219
▁Pride	-11.3219
▁ensue	-11.3219
▁basis	-11.3219
▁shelter	-11.322
▁Reines	-11.322
▁Sinai	-11.322
▁miserie	-11.322
▁mule	-11.322
▁occurred	-11.322
▁cannon	-11.3221
▁Sister	-11.3223
▁redress	-11.3224
▁Villain	-11.3225
▁envie	-11.3226
▁forthwith	-11.3227
▁adore	-11.3232
▁surety	-11.3233
tempo	-11.3234
▁brag	-11.3235
▁begotten	-11.3236
▁Later	-11.3237
▁hatch	-11.3239
▁visitation	-11.324
▁Baptista	-11.3241
▁faction	-11.3243
▁Nun	-11.3244
▁pinch	-11.3247
said	-11.3253
▁Norman	-11.3254
IG	-11.3255
▁75	-11.3257
▁moan	-11.3262
▁finally	-11.3275
▁declined	-11.3278
▁een	-11.3282
▁arrow	-11.3284
▁Friend	-11.3288
▁sunk	-11.3289
▁seemeth	-11.329
▁bait	-11.3292
LOR	-11.3297
▁ice	-11.3298
▁enquired	-11.331
▁surprise	-11.3326
▁Neer	-11.3336
▁inspir	-11.3341
▁sue	-11.3359
ought	-11.3422
▁Chris	-11.3459
▁reconcile	-11.3466
▁relation	-11.3488
▁CONSTANCE	-11.3489
▁Cambridge	-11.3489
▁Dromio	-11.3489
▁HELICANUS	-11.3489
▁HERMIONE	-11.3489
▁Hubert	-11.3489
▁International	-11.3489
▁Ithamore	-11.3489
▁Jehoiakim	-11.3489
▁LEPIDUS	-11.3489
▁MARCELLUS	-11.3489
▁NERISSA	-11.3489
▁Othello	-11.3489
▁PIRITHOUS	-11.3489
▁Records	-11.3489
▁Saviour	-11.3489
▁Sihon	-11.3489
▁Urania	-11.3489
▁abominable	-11.3489
▁encourage	-11.3489
▁liquor	-11.3489
▁medicine	-11.3489
▁radio	-11.3489
▁recommend	-11.3489
▁struggle	-11.3489
▁studied	-11.3489
▁universal	-11.3489
▁(200	-11.3489
▁Branch	-11.3489
▁Champion	-11.3489
▁Houston	-11.3489
▁venom	-11.3489
▁yesterday	-11.3489
▁parcel	-11.3489
▁petty	-11.3489
▁affright	-11.3489
▁Break	-11.3489
▁Walter	-11.3489
▁Senate	-11.3489
▁gait	-11.3489
▁hawk	-11.3489
▁replaced	-11.3489
▁quote	-11.3489
▁Caleb	-11.3489
▁Gulf	-11.3489
▁contriv	-11.3489
▁warrior	-11.3489
▁northern	-11.3489
▁livd	-11.3489
▁Bird	-11.349
▁1:4	-11.349
▁Group	-11.349
▁stale	-11.349
▁Ahaziah	-11.349
▁impress	-11.3491
▁froward	-11.3491
▁21:2	-11.3491
▁prospect	-11.3491
▁rack	-11.3491
▁gotten	-11.3491
▁Hamath	-11.3492
▁marrow	-11.3492
▁impart	-11.3492
▁19:2	-11.3492
▁normal	-11.3493
▁3:3	-11.3493
▁jump	-11.3493
▁summon	-11.3493
▁13:2	-11.3493
▁wholesome	-11.3493
▁16:2	-11.3494
▁rouse	-11.3495
▁prosperity	-11.3495
▁helmet	-11.3496
▁ample	-11.3497
▁tip	-11.3498
▁Whereof	-11.3499
▁acceptable	-11.3499
▁departure	-11.3499
▁temptation	-11.3499
▁resolve	-11.3502
▁diligently	-11.3502
▁relieve	-11.3504
▁lance	-11.3512
▁overall	-11.3527
▁inhabited	-11.3528
▁badge	-11.353
▁Touch	-11.353
▁dismayed	-11.3533
▁transgressed	-11.3535
▁swelling	-11.3536
▁settled	-11.3545
▁county	-11.3554
▁receiveth	-11.3564
▁Jesu	-11.3566
IP	-11.357
▁hateth	-11.3582
▁stained	-11.3586
rove	-11.3591
▁shameful	-11.3611
▁dive	-11.3625
▁tie	-11.3633
ffect	-11.3633
▁boldly	-11.3633
▁undergo	-11.364
▁DIS	-11.3642
▁resolv	-11.3655
face	-11.3679
▁cruell	-11.3681
▁rout	-11.3705
ville	-11.3706
1]	-11.371
▁settle	-11.3723
▁Ran	-11.3725
ounce	-11.3756
▁Gentle	-11.3763
▁ministr	-11.3767
CESTER	-11.3767
▁Alexandria	-11.3767
▁Author	-11.3767
▁BARNARDINE	-11.3767
▁Government	-11.3767
▁Katherine	-11.3767
▁MENAS	-11.3767
▁NYM	-11.3767
▁PETER	-11.3767
▁POET	-11.3767
▁Patience	-11.3767
▁THURIO	-11.3767
▁Tranio	-11.3767
▁accusation	-11.3767
▁aerodrome	-11.3767
▁campaign	-11.3767
▁celebrate	-11.3767
▁earthquake	-11.3767
▁fictional	-11.3767
▁guitar	-11.3767
▁hospital	-11.3767
▁integrity	-11.3767
▁numerous	-11.3767
▁powder	-11.3767
▁proclamation	-11.3767
▁residue	-11.3767
▁revenue	-11.3767
▁skull	-11.3767
▁journal	-11.3767
▁thirteen	-11.3767
▁Blood	-11.3767
▁Eagle	-11.3767
▁shirt	-11.3767
▁Dream	-11.3767
▁cabin	-11.3767
▁organization	-11.3767
▁decade	-11.3767
▁fraud	-11.3768
▁dismal	-11.3768
▁Ramah	-11.377
▁sphere	-11.3771
▁ultimately	-11.3771
▁cruelty	-11.3771
▁enrag	-11.3772
▁Faerie	-11.3772
▁kindle	-11.3772
▁crop	-11.3774
▁20:2	-11.3774
▁14:2	-11.3774
▁employment	-11.3774
▁parish	-11.3776
▁poem	-11.3778
▁poetry	-11.3778
▁Elias	-11.3778
▁gay	-11.3779
▁lake	-11.3779
▁fray	-11.3781
▁bitterness	-11.3786
▁flag	-11.3787
▁launched	-11.3789
▁Australian	-11.3791
▁warning	-11.3793
▁79	-11.3795
▁converted	-11.3814
▁extended	-11.382
▁subdued	-11.3823
▁matches	-11.3823
▁defy	-11.3825
▁practise	-11.383
▁Cain	-11.383
▁cow	-11.383
▁Toby	-11.3833
▁UN	-11.3836
▁fade	-11.3837
▁Hush	-11.3838
▁physical	-11.3844
▁clothing	-11.3846
hop	-11.3846
▁purg	-11.385
▁Thisbe	-11.385
▁lamp	-11.3858
▁dash	-11.386
pot	-11.3863
▁allowing	-11.3864
▁resolved	-11.3868
▁armes	-11.3869
▁missing	-11.3871
tail	-11.3873
▁legal	-11.3874
▁weaker	-11.388
▁mainly	-11.3889
allow	-11.3903
▁bathe	-11.391
▁wan	-11.391
▁Van	-11.3915
▁Fate	-11.3953
▁declar	-11.397
▁subdue	-11.3996
▁develop	-11.4007
▁inhabit	-11.4009
▁adopt	-11.4012
▁Jan	-11.4014
maker	-11.402
point	-11.4046
▁Bohemia	-11.4053
▁CALYMATH	-11.4053
▁Eternal	-11.4053
▁Finals	-11.4053
▁LODOVICO	-11.4053
▁Laertes	-11.4053
▁Lorenzo	-11.4053
▁Malvolio	-11.4053
▁PUCK	-11.4053
▁President	-11.4053
▁XLV	-11.4053
▁applied	-11.4053
▁blossom	-11.4053
▁consequence	-11.4053
▁distemper	-11.4053
▁happily	-11.4053
▁incident	-11.4053
▁institution	-11.4053
▁nimble	-11.4053
▁ointment	-11.4053
▁photograph	-11.4053
▁pomegranate	-11.4053
▁rejoicing	-11.4053
▁sleeve	-11.4053
▁Capulet	-11.4053
▁Review	-11.4053
▁romance	-11.4053
▁sprung	-11.4053
▁dungeon	-11.4053
▁enmity	-11.4053
▁Stood	-11.4053
▁Watch	-11.4053
▁Fool	-11.4053
▁brood	-11.4053
▁whipped	-11.4053
▁consort	-11.4053
▁Ocean	-11.4053
▁amorous	-11.4053
▁spoon	-11.4053
▁dowry	-11.4053
▁accent	-11.4053
▁EARL	-11.4053
▁trodden	-11.4053
▁transferred	-11.4053
▁Place	-11.4053
▁piteous	-11.4053
▁Middle	-11.4054
▁remainder	-11.4054
▁potential	-11.4054
ERMAN	-11.4054
umbling	-11.4054
▁cheat	-11.4055
▁Mother	-11.4055
▁courteous	-11.4055
▁shrine	-11.4056
▁marble	-11.4056
▁correction	-11.4056
▁split	-11.4056
▁rebelled	-11.4057
▁BOTH	-11.4057
▁controlled	-11.4058
▁westward	-11.4058
▁mute	-11.4058
▁potent	-11.4058
▁2000	-11.4059
▁2:3	-11.4059
▁semi	-11.406
▁subsequently	-11.4061
▁bidding	-11.4062
"--	-11.4066
▁Back	-11.4066
▁rue	-11.4069
fire	-11.4069
▁Victor	-11.4071
▁via	-11.4073
▁Leah	-11.4073
▁Asaph	-11.4076
▁encamped	-11.4076
▁Lend	-11.4077
▁quicken	-11.408
And	-11.4082
▁300	-11.4083
▁spies	-11.4085
bai	-11.4085
▁frost	-11.4085
▁girded	-11.4093
▁Joan	-11.4094
▁cleanse	-11.4107
▁enclos	-11.4109
prop	-11.4122
▁grim	-11.4127
▁manhood	-11.4135
▁curst	-11.4137
▁Philistine	-11.4142
▁alway	-11.4142
front	-11.4168
tide	-11.4174
▁Use	-11.4177
▁Base	-11.4238
▁reviv	-11.425
▁gird	-11.4283
bow	-11.4291
blood	-11.434
▁descri	-11.4345
▁revolution	-11.4347
▁Athenian	-11.4347
▁BANQUO	-11.4347
▁Beersheba	-11.4347
▁Emilia	-11.4347
▁GUILDENSTERN	-11.4347
▁Girls	-11.4347
▁Hilkiah	-11.4347
▁Hockey	-11.4347
▁Hortensio	-11.4347
▁Likewise	-11.4347
▁Monsieur	-11.4347
▁Revenge	-11.4347
▁association	-11.4347
▁bridge	-11.4347
▁circumcision	-11.4347
▁crooked	-11.4347
▁ephah	-11.4347
▁equipment	-11.4347
▁peasant	-11.4347
▁peradventure	-11.4347
▁pillow	-11.4347
▁plenty	-11.4347
▁redemption	-11.4347
▁romantic	-11.4347
▁separation	-11.4347
▁snatch	-11.4347
▁specimen	-11.4347
▁vapour	-11.4347
▁vulgar	-11.4347
▁zombie	-11.4347
▁Dutch	-11.4347
▁Video	-11.4347
▁scandal	-11.4347
▁thorough	-11.4347
▁1970	-11.4347
▁Isabel	-11.4347
▁fragment	-11.4347
▁1980	-11.4347
▁Consider	-11.4347
▁Fleet	-11.4347
▁Proceed	-11.4347
▁clerk	-11.4347
▁glorie	-11.4347
▁Carolina	-11.4347
▁pervert	-11.4347
▁lurk	-11.4347
▁alms	-11.4347
▁annoy	-11.4347
▁infernal	-11.4347
▁attire	-11.4347
▁Grey	-11.4347
▁7:4	-11.4347
▁hardened	-11.4347
▁Something	-11.4347
-10	-11.4347
▁apace	-11.4347
▁balm	-11.4347
▁loathsome	-11.4348
▁dukedom	-11.4348
▁repose	-11.4348
▁Cursed	-11.4348
▁football	-11.4348
▁screen	-11.4349
▁ceas	-11.435
▁apple	-11.435
▁magician	-11.435
▁6:3	-11.4351
▁ballad	-11.4352
▁15:2	-11.4352
▁Become	-11.4353
▁Emb	-11.4354
▁brest	-11.4354
▁8:3	-11.4354
▁shave	-11.4354
▁dung	-11.4355
▁northward	-11.4355
▁intreat	-11.4356
▁overtake	-11.4356
▁typically	-11.4356
▁Rise	-11.4359
▁Human	-11.4359
▁Cade	-11.4361
▁Worthy	-11.4366
voi	-11.4371
▁uphold	-11.4374
▁selected	-11.4382
▁Tro	-11.4384
▁57	-11.4386
▁adopted	-11.439
▁instantly	-11.4392
▁150	-11.4397
who	-11.4401
▁dye	-11.4409
polis	-11.4413
▁spurn	-11.4414
▁bon	-11.4419
▁dispos	-11.4431
▁gray	-11.4447
▁inhabitant	-11.4447
▁whi	-11.4449
▁overthrown	-11.4459
▁fram	-11.4464
▁giv	-11.4472
▁sever	-11.4477
▁Jai	-11.4481
▁HA	-11.4498
▁bin	-11.4501
▁observ	-11.4508
burn	-11.4518
mount	-11.4543
▁nam	-11.4562
▁MO	-11.463
▁hip	-11.4635
▁WILLIAM	-11.4645
▁unrighteous	-11.465
▁BURGUNDY	-11.465
▁CORDELIA	-11.465
▁Canadian	-11.465
▁District	-11.465
▁Dragon	-11.465
▁Jephthah	-11.465
▁LANCASTER	-11.465
▁MICHAEL	-11.465
▁MOWBRAY	-11.465
▁Olivia	-11.465
▁PERCY	-11.465
▁SENIOR	-11.465
▁Secret	-11.465
▁Shiloh	-11.465
▁Stefani	-11.465
▁THAISA	-11.465
▁WAGNER	-11.465
▁Winchester	-11.465
▁adversary	-11.465
▁college	-11.465
▁competition	-11.465
▁controversy	-11.465
▁convention	-11.465
▁dwarf	-11.465
▁identified	-11.465
▁jade	-11.465
▁peculiar	-11.465
▁recompence	-11.465
▁refresh	-11.465
▁strumpet	-11.465
▁submarine	-11.465
▁surrounding	-11.465
▁varlet	-11.465
▁victual	-11.465
▁wreck	-11.465
▁Civil	-11.465
▁airport	-11.465
▁slack	-11.465
▁streak	-11.465
▁trunk	-11.465
▁Carmel	-11.465
▁residents	-11.465
▁surname	-11.465
▁Daughter	-11.465
▁justify	-11.465
▁liquid	-11.465
▁Isaiah	-11.465
▁flew	-11.465
▁unseen	-11.465
▁discord	-11.465
▁cheap	-11.465
▁retreat	-11.465
▁strew	-11.465
▁fawn	-11.465
▁loaves	-11.465
▁patch	-11.465
▁cult	-11.465
▁sinews	-11.465
▁Front	-11.465
▁heaviness	-11.465
▁Mountain	-11.4651
▁groom	-11.4651
▁occupied	-11.4651
▁loyalty	-11.4652
▁portray	-11.4654
▁Teach	-11.4656
▁begot	-11.4656
▁lawyer	-11.4656
▁whoso	-11.4657
▁Daz	-11.4657
▁rope	-11.4657
▁muse	-11.4658
▁vote	-11.4659
▁virginity	-11.466
▁pun	-11.466
▁Fairies	-11.4662
▁abundantly	-11.4664
▁seduc	-11.4664
▁Gaunt	-11.4664
▁constructed	-11.4666
▁rites	-11.4666
▁capable	-11.4666
doubt	-11.4667
▁Muse	-11.4668
▁Kill	-11.467
▁getting	-11.4672
▁associated	-11.4674
▁secondary	-11.4674
▁Found	-11.4674
▁wages	-11.4676
▁Saw	-11.4681
2]	-11.4684
▁herbs	-11.4688
▁CON	-11.4695
▁opera	-11.4696
▁54	-11.4704
▁65	-11.471
▁Cut	-11.4718
▁route	-11.4734
▁Shim	-11.474
▁hare	-11.475
▁student	-11.4756
IES	-11.4766
▁mist	-11.48
▁pant	-11.4812
▁Bro	-11.4829
▁Steve	-11.4829
ISE	-11.4833
▁fli	-11.4845
board	-11.4857
▁griev	-11.4864
AVE	-11.4891
spire	-11.4935
friend	-11.4955
▁Romania	-11.4956
KEEPER	-11.4962
▁DAUPHIN	-11.4962
▁DOLL	-11.4962
▁FERDINAND	-11.4962
▁Gabbar	-11.4962
▁Ganganelli	-11.4962
▁Gedaliah	-11.4962
▁Holocaust	-11.4962
▁Madison	-11.4962
▁Mathias	-11.4962
▁Meanwhile	-11.4962
▁Monument	-11.4962
▁Philadelphia	-11.4962
▁SALARINO	-11.4962
▁SURREY	-11.4962
▁Sicilia	-11.4962
▁Stephen	-11.4962
▁Tamora	-11.4962
▁WIDOW	-11.4962
▁WITH	-11.4962
▁Westmoreland	-11.4962
▁activity	-11.4962
▁brasen	-11.4962
▁breastplate	-11.4962
▁celestial	-11.4962
▁channel	-11.4962
▁clamour	-11.4962
▁collected	-11.4962
▁comparison	-11.4962
▁devotion	-11.4962
▁firstfruits	-11.4962
▁neutrino	-11.4962
▁peevish	-11.4962
▁pregnant	-11.4962
▁profound	-11.4962
▁prudent	-11.4962
▁responsible	-11.4962
▁saucy	-11.4962
▁selfsame	-11.4962
▁semblance	-11.4962
▁vanquish	-11.4962
▁xxx	-11.4962
▁flout	-11.4962
▁nevertheless	-11.4962
▁penalty	-11.4962
▁science	-11.4962
▁stedfast	-11.4962
▁1998	-11.4962
▁Hearken	-11.4962
▁Micah	-11.4962
▁respectively	-11.4962
▁reactor	-11.4962
▁risk	-11.4962
▁afeard	-11.4962
▁fulness	-11.4962
▁methought	-11.4962
▁wilful	-11.4962
▁Hobbs	-11.4962
▁gallows	-11.4962
▁hounds	-11.4962
▁Devin	-11.4962
▁infection	-11.4963
▁Giant	-11.4963
▁7:5	-11.4963
▁Talk	-11.4963
▁peep	-11.4963
▁resort	-11.4963
▁tiger	-11.4963
▁Historic	-11.4963
▁attach	-11.4963
▁pleasd	-11.4964
▁veil	-11.4965
▁hostess	-11.4965
▁admitted	-11.4965
▁abhorred	-11.4965
▁drunkard	-11.4966
▁23:3	-11.4966
▁1920	-11.4966
▁observation	-11.4967
▁25:2	-11.4968
▁speedily	-11.4968
▁trace	-11.4968
▁17:2	-11.4968
▁Goths	-11.4968
▁defect	-11.4968
▁protection	-11.4969
master	-11.4969
▁15:3	-11.4971
▁dislike	-11.4972
▁invest	-11.4973
▁information	-11.4974
▁Micha	-11.4974
▁cruiser	-11.4976
▁(18	-11.4977
▁settlement	-11.4977
▁Blackie	-11.4977
9]	-11.4978
▁stake	-11.4978
▁Helena	-11.4979
▁hurl	-11.4981
▁HER	-11.4983
▁cook	-11.4983
▁job	-11.4985
▁incorporate	-11.4987
▁displeased	-11.4989
▁deliverance	-11.499
▁Ever	-11.4995
▁handsome	-11.4998
7]	-11.5005
▁conqueror	-11.5008
▁abate	-11.5014
▁Foe	-11.5014
▁formation	-11.5016
▁Arabia	-11.5019
▁flattery	-11.5036
▁movement	-11.504
▁Five	-11.504
▁List	-11.505
▁disciple	-11.508
▁talent	-11.5087
▁thorn	-11.5087
▁Due	-11.5096
▁CAT	-11.5114
▁lime	-11.5125
▁fol	-11.5141
▁tun	-11.5173
▁Gall	-11.5174
▁Wall	-11.5205
▁Arab	-11.5234
standing	-11.5275
minute	-11.5278
century	-11.5278
season	-11.5278
course	-11.5281
▁avail	-11.5285
▁Abiathar	-11.5285
▁Ahasuerus	-11.5285
▁Archimago	-11.5285
▁BALTHASAR	-11.5285
▁BRABANTIO	-11.5285
▁CHIRON	-11.5285
▁FRANCIS	-11.5285
▁Horatio	-11.5285
▁Instead	-11.5285
▁JEW	-11.5285
▁MARIANA	-11.5285
▁Messenger	-11.5285
▁Murder	-11.5285
▁Nebuchadrezzar	-11.5285
▁ORLEANS	-11.5285
▁OUTLAW	-11.5285
▁PAINTER	-11.5285
▁RAAF	-11.5285
▁Vargas	-11.5285
▁accompanied	-11.5285
▁allegiance	-11.5285
▁baptism	-11.5285
▁calamity	-11.5285
▁consecutive	-11.5285
▁continent	-11.5285
▁dissemble	-11.5285
▁evident	-11.5285
▁extremity	-11.5285
▁giddy	-11.5285
▁glorify	-11.5285
▁hygrometricus	-11.5285
▁merchandise	-11.5285
▁naval	-11.5285
▁perplex	-11.5285
▁substitute	-11.5285
▁twelfth	-11.5285
▁unaware	-11.5285
▁variation	-11.5285
▁Hugh	-11.5285
▁Zidon	-11.5285
▁devout	-11.5285
▁1995	-11.5285
▁locust	-11.5285
▁stature	-11.5285
▁Bridge	-11.5285
▁Nazi	-11.5285
▁afternoon	-11.5285
▁Cherub	-11.5285
▁Robin	-11.5285
▁location	-11.5285
▁parley	-11.5285
▁harmony	-11.5285
▁Operation	-11.5285
▁enrich	-11.5285
▁pupil	-11.5285
▁entry	-11.5285
Hungarian	-11.5285
▁glean	-11.5285
▁coffer	-11.5285
▁lark	-11.5285
▁Begin	-11.5285
▁Northern	-11.5285
▁thanksgiving	-11.5285
▁Strapping	-11.5286
▁Conference	-11.5286
▁network	-11.5286
▁astray	-11.5286
▁Devil	-11.5286
▁XIII	-11.5287
▁Throw	-11.5291
▁pressure	-11.5293
NO	-11.5294
▁betimes	-11.5295
▁VIII	-11.5297
▁heavier	-11.5298
▁Guide	-11.53
▁sufferance	-11.53
▁Max	-11.5301
▁digest	-11.5301
▁centre	-11.5306
▁goose	-11.531
▁intention	-11.5314
jah	-11.5315
▁Near	-11.5325
▁sadness	-11.5327
▁confession	-11.5333
▁gust	-11.5333
▁Rose	-11.5334
▁Want	-11.5353
▁senseless	-11.5362
post	-11.5375
▁comic	-11.5381
▁rider	-11.5383
▁Eve	-11.5388
▁wager	-11.5402
▁wool	-11.5419
▁nut	-11.544
▁pole	-11.5454
▁53	-11.5483
▁requ	-11.5489
▁Uri	-11.5513
▁scrap	-11.5515
▁faci	-11.5518
▁aveng	-11.5549
▁XVI	-11.5593
▁immediate	-11.5599
▁Uzzi	-11.5616
▁permit	-11.5616
▁AGRIPPA	-11.5618
▁Bruins	-11.5618
▁Gershon	-11.5618
▁HISTORY	-11.5618
▁Happy	-11.5618
▁Henceforth	-11.5618
▁LOUIS	-11.5618
▁Llosa	-11.5618
▁Lodowick	-11.5618
▁MATHIAS	-11.5618
▁OBERON	-11.5618
▁Rebekah	-11.5618
▁SOOTHSAYER	-11.5618
▁Senators	-11.5618
▁Uyghur	-11.5618
▁circuit	-11.5618
▁commonwealth	-11.5618
▁contrast	-11.5618
▁endeavour	-11.5618
▁excellency	-11.5618
▁inferior	-11.5618
▁lovingkindness	-11.5618
▁mutiny	-11.5618
▁plenteous	-11.5618
▁territories	-11.5618
▁testament	-11.5618
▁ungodly	-11.5618
▁Banquo	-11.5618
▁Jeshua	-11.5618
▁Prepare	-11.5618
▁Shaphan	-11.5618
▁Silence	-11.5618
▁gravity	-11.5618
▁Slayer	-11.5618
▁Slender	-11.5618
▁Twere	-11.5618
▁imperial	-11.5618
▁forswear	-11.5618
▁whelp	-11.5618
▁bulk	-11.5618
▁Imogen	-11.5618
▁Louis	-11.5618
▁lovst	-11.5618
▁Flower	-11.5618
▁solicit	-11.5618
▁makst	-11.5618
▁Casca	-11.5618
▁powre	-11.5618
▁Bank	-11.5618
▁relent	-11.5618
▁reverse	-11.5618
▁crystal	-11.5619
▁meddle	-11.5619
▁putteth	-11.5619
▁Holiness	-11.562
▁nether	-11.562
▁Humour	-11.562
▁rapier	-11.5621
▁covetousness	-11.5621
▁planned	-11.5622
▁satire	-11.5623
▁1930	-11.5623
▁23:2	-11.5623
▁Cross	-11.5623
▁repute	-11.5624
▁copies	-11.5624
▁glow	-11.5625
▁easier	-11.5628
▁distil	-11.563
▁succession	-11.5636
▁theatre	-11.5636
▁shop	-11.5637
down	-11.5637
▁Jim	-11.5637
ization	-11.5637
▁African	-11.5639
▁400	-11.5642
▁suggestion	-11.565
type	-11.5652
▁Elam	-11.5653
▁Whoso	-11.5655
▁abideth	-11.5657
▁mire	-11.5659
▁158	-11.5667
corn	-11.567
▁contention	-11.572
grade	-11.5728
faith	-11.5752
held	-11.5885
▁invite	-11.5912
▁select	-11.5921
▁56	-11.5934
▁initial	-11.5944
▁necessit	-11.5948
mouth	-11.5956
water	-11.5957
horse	-11.5959
▁heavie	-11.596
▁Rich	-11.5963
▁multi	-11.5963
▁Arkansas	-11.5963
▁Barnabas	-11.5963
▁CATESBY	-11.5963
▁Celestial	-11.5963
▁Dominican	-11.5963
▁ELBOW	-11.5963
▁Ferdinand	-11.5963
▁GAUNT	-11.5963
▁Hananiah	-11.5963
▁Mowbray	-11.5963
▁Observe	-11.5963
▁PLANTAGENET	-11.5963
▁Phoebe	-11.5963
▁Phoebus	-11.5963
▁Roderigo	-11.5963
▁SCHOLAR	-11.5963
▁Verona	-11.5963
▁accompany	-11.5963
▁bargain	-11.5963
▁compliment	-11.5963
▁distribute	-11.5963
▁environment	-11.5963
▁experiment	-11.5963
▁festival	-11.5963
▁injuries	-11.5963
▁navy	-11.5963
▁purify	-11.5963
▁refrain	-11.5963
▁scratch	-11.5963
▁scruple	-11.5963
▁scurvy	-11.5963
▁succour	-11.5963
▁technique	-11.5963
▁treachery	-11.5963
▁Fellow	-11.5963
▁Mantua	-11.5963
▁actually	-11.5963
▁architect	-11.5963
▁characteristic	-11.5963
▁empire	-11.5963
▁haughty	-11.5963
▁precise	-11.5963
▁selves	-11.5963
▁SNL	-11.5963
▁expense	-11.5963
▁passenger	-11.5963
▁reagent	-11.5963
▁1941	-11.5963
▁depose	-11.5963
▁presume	-11.5963
▁snuff	-11.5963
▁Witness	-11.5963
▁frank	-11.5963
▁History	-11.5963
▁Tush	-11.5963
▁chapiter	-11.5963
▁camst	-11.5963
▁rifle	-11.5963
▁Desire	-11.5963
▁pangs	-11.5963
▁Project	-11.5964
▁brier	-11.5964
▁deserving	-11.5964
▁usury	-11.5964
▁Marshal	-11.5964
▁alien	-11.5965
▁earliest	-11.5966
▁Strange	-11.5966
almon	-11.5967
▁assail	-11.5967
▁Joram	-11.5967
▁errand	-11.5967
▁helm	-11.5968
▁WILLIAMS	-11.5968
spring	-11.5968
▁bolt	-11.5969
▁mint	-11.597
▁stirred	-11.5971
▁Board	-11.5971
▁penance	-11.5975
▁greedy	-11.5976
▁Order	-11.5976
▁Dian	-11.5977
▁Road	-11.5978
▁1960	-11.5982
▁1950	-11.5983
▁happier	-11.5987
▁chat	-11.5997
▁stem	-11.6008
▁suppos	-11.6011
▁Kish	-11.6013
▁swain	-11.6013
▁ewe	-11.6019
▁factor	-11.6031
▁cent	-11.6037
▁Levite	-11.6119
ipping	-11.6146
▁Cro	-11.6162
▁Lion	-11.6206
▁determin	-11.621
ATH	-11.6223
▁seiz	-11.6236
▁engage	-11.6263
▁dram	-11.6278
▁complex	-11.6313
trust	-11.6313
▁Baasha	-11.632
▁Battel	-11.632
▁Beaufort	-11.632
▁Beseech	-11.632
▁Despair	-11.632
▁Excellent	-11.632
▁GHOST	-11.632
▁Launcelet	-11.632
▁Lepidus	-11.632
▁Lieutenant	-11.632
▁Methought	-11.632
▁Minister	-11.632
▁Nazareth	-11.632
▁Notwithstanding	-11.632
▁Ontario	-11.632
▁Perhaps	-11.632
▁SIMPLE	-11.632
▁Tarsus	-11.632
▁VERNON	-11.632
▁VIRGILIA	-11.632
▁WINCHESTER	-11.632
▁chivalry	-11.632
▁combination	-11.632
▁contribute	-11.632
▁drift	-11.632
▁economic	-11.632
▁essential	-11.632
▁excellence	-11.632
▁exclaim	-11.632
▁falcon	-11.632
▁receivd	-11.632
▁senators	-11.632
▁spectacle	-11.632
▁squadron	-11.632
▁superfluous	-11.632
▁surrender	-11.632
▁tribulation	-11.632
▁uncertain	-11.632
▁widespread	-11.632
▁EROS	-11.632
▁MVP	-11.632
▁Together	-11.632
▁perchance	-11.632
▁suppress	-11.632
▁1986	-11.632
▁1991	-11.632
▁1994	-11.632
▁Provide	-11.632
▁acquire	-11.632
▁creator	-11.632
▁defense	-11.632
▁domestic	-11.632
▁pretend	-11.632
▁1988	-11.632
▁Aeneas	-11.632
▁Korah	-11.632
▁lofty	-11.632
▁Constable	-11.632
▁Fetch	-11.632
▁bequeath	-11.632
▁federal	-11.632
▁measuring	-11.632
▁kinsmen	-11.632
▁Amnon	-11.632
▁galleys	-11.632
▁omit	-11.632
apud	-11.632
father	-11.632
▁odour	-11.632
▁Ezra	-11.632
▁convince	-11.632
▁threshold	-11.632
▁persist	-11.6321
▁Nym	-11.6321
▁servile	-11.6322
▁Almost	-11.6322
ECT	-11.6322
▁Image	-11.6322
▁dispute	-11.6322
▁linger	-11.6322
▁Uriah	-11.6323
WASP	-11.6323
▁China	-11.6324
▁classical	-11.6324
▁Ariel	-11.6324
▁planning	-11.6324
▁stiff	-11.6324
▁pursuit	-11.6326
▁carries	-11.6326
▁wring	-11.6328
▁stuck	-11.6328
▁Proud	-11.6329
▁dirt	-11.6329
▁Quite	-11.633
▁potter	-11.633
▁plow	-11.6332
▁Burn	-11.6332
▁genus	-11.6333
▁Bald	-11.6333
▁gull	-11.6334
▁CEL	-11.6336
▁factory	-11.6336
▁witty	-11.6338
How	-11.6338
▁Vice	-11.6339
▁fourteenth	-11.6339
▁puff	-11.6341
▁painter	-11.6341
▁mph	-11.6347
▁XV	-11.6358
▁expel	-11.6369
RIS	-11.6414
▁para	-11.6444
▁Naha	-11.6456
▁reveng	-11.6516
heard	-11.6545
▁driv	-11.6565
▁PRO	-11.6626
▁propose	-11.6635
▁Amalek	-11.6689
▁Barnardine	-11.6691
▁Cornwall	-11.6691
▁Cymbeline	-11.6691
▁Explain	-11.6691
▁Imperial	-11.6691
▁JESSICA	-11.6691
▁Johanan	-11.6691
▁Macedonia	-11.6691
▁Neptune	-11.6691
▁OSRIC	-11.6691
▁Palestine	-11.6691
▁Parvati	-11.6691
▁RIVERS	-11.6691
▁Trumpet	-11.6691
▁Tyrus	-11.6691
▁Wanderers	-11.6691
▁Westminster	-11.6691
▁Wisdom	-11.6691
▁bachelor	-11.6691
▁blank	-11.6691
▁hemmema	-11.6691
▁hockey	-11.6691
▁independent	-11.6691
▁infirmity	-11.6691
▁initiative	-11.6691
▁literature	-11.6691
▁maidservant	-11.6691
▁nomination	-11.6691
▁offensive	-11.6691
▁predecessor	-11.6691
▁prodigal	-11.6691
▁ritual	-11.6691
▁shittim	-11.6691
▁simply	-11.6691
▁sweep	-11.6691
▁violate	-11.6691
▁Prospero	-11.6691
▁Summer	-11.6691
▁bishop	-11.6691
▁correspond	-11.6691
▁everywhere	-11.6691
▁hammer	-11.6691
▁Berowne	-11.6691
▁NBC	-11.6691
▁chaff	-11.6691
▁deputy	-11.6691
▁famish	-11.6691
▁firmament	-11.6691
▁grandsire	-11.6691
▁machine	-11.6691
▁shriek	-11.6691
▁tavern	-11.6691
▁1942	-11.6691
▁1943	-11.6691
▁monitor	-11.6691
▁glance	-11.6691
▁stories	-11.6691
▁Thersites	-11.6691
▁orchard	-11.6691
▁distant	-11.6691
▁battery	-11.6691
▁untimely	-11.6691
▁Boston	-11.6691
▁roast	-11.6691
▁expert	-11.6691
▁alack	-11.6691
▁bereave	-11.6691
▁spouse	-11.6691
▁2:5	-11.6691
▁Corps	-11.6691
▁29:2	-11.6692
▁converse	-11.6692
▁section	-11.6692
▁Marina	-11.6692
▁robbed	-11.6692
▁Japan	-11.6692
▁7:3	-11.6693
▁antique	-11.6693
▁Uzziah	-11.6693
▁conception	-11.6693
▁30:2	-11.6693
▁assistance	-11.6694
▁yard	-11.6695
▁importance	-11.6695
▁Ammonites	-11.6695
▁pitied	-11.6696
▁Feed	-11.6696
▁hoof	-11.6696
▁spright	-11.6697
▁1604	-11.6698
▁Mint	-11.6698
▁Fame	-11.6698
▁mouse	-11.6698
▁taper	-11.6699
▁sovereignty	-11.6699
▁popularity	-11.6699
▁fuel	-11.6701
▁leper	-11.6702
▁damnation	-11.6704
▁ebb	-11.6704
▁5:3	-11.6704
▁philosophy	-11.6705
▁royalty	-11.6706
▁treatment	-11.6706
▁mote	-11.6707
▁stall	-11.6708
▁Blow	-11.6709
▁chop	-11.671
▁Johnson	-11.6711
▁clad	-11.6711
▁Way	-11.6711
▁subscribe	-11.6713
▁villainous	-11.6714
▁fitted	-11.6715
▁Canto	-11.6722
▁hitherto	-11.6723
▁ideal	-11.6724
▁neat	-11.6738
▁Mass	-11.6742
ACK	-11.6769
▁Gallia	-11.6774
▁payment	-11.6787
▁NOT	-11.6809
▁sorrowful	-11.6826
▁cram	-11.6837
though	-11.6844
bility	-11.687
▁sinner	-11.6887
obby	-11.6916
▁historic	-11.6983
▁Direct	-11.7063
September	-11.7068
▁HELEN	-11.7072
▁covet	-11.7073
▁ARTHUR	-11.7075
▁Admiral	-11.7075
▁Adonijah	-11.7075
▁Agrippa	-11.7075
▁Airport	-11.7075
▁Archaeology	-11.7075
▁Archbishop	-11.7075
▁BEDFORD	-11.7075
▁Certain	-11.7075
▁Creek	-11.7075
▁Crusader	-11.7075
▁Cyrus	-11.7075
▁Florence	-11.7075
▁LOVELL	-11.7075
▁MORTIMER	-11.7075
▁Neolithic	-11.7075
▁PERDITA	-11.7075
▁Patrick	-11.7075
▁Patroclus	-11.7075
▁Pisanio	-11.7075
▁ROBIN	-11.7075
▁Rejoice	-11.7075
▁Stansfield	-11.7075
▁Studio	-11.7075
▁Yeovil	-11.7075
▁Zagreb	-11.7075
▁Zeruiah	-11.7075
▁adapted	-11.7075
▁approximately	-11.7075
▁artillery	-11.7075
▁barbarous	-11.7075
▁charitable	-11.7075
▁district	-11.7075
▁financial	-11.7075
▁franchise	-11.7075
▁gazing	-11.7075
▁indifferent	-11.7075
▁instinct	-11.7075
▁nuptial	-11.7075
▁nymph	-11.7075
▁receiving	-11.7075
▁register	-11.7075
▁spacious	-11.7075
▁swagger	-11.7075
▁university	-11.7075
▁EDEN	-11.7075
▁depriv	-11.7075
▁eyelids	-11.7075
▁fantastic	-11.7075
▁fungus	-11.7075
▁gloom	-11.7075
▁permanent	-11.7075
▁recount	-11.7075
▁Rangers	-11.7075
▁Rhode	-11.7075
▁shrink	-11.7075
▁smother	-11.7075
▁Davy	-11.7075
▁disaster	-11.7075
▁shaft	-11.7075
▁valid	-11.7075
▁emotion	-11.7075
▁gossip	-11.7075
▁indirect	-11.7075
▁Fifth	-11.7075
▁treble	-11.7075
▁editor	-11.7075
▁Austro	-11.7075
▁homage	-11.7075
▁thumb	-11.7075
▁grateful	-11.7075
▁thrall	-11.7075
▁Ruler	-11.7075
▁rural	-11.7075
▁Story	-11.7075
▁steam	-11.7075
▁1:7	-11.7076
▁Point	-11.7076
▁Denmark	-11.7076
▁Commission	-11.7076
▁mistrust	-11.7076
▁cancer	-11.7076
▁Herald	-11.7076
▁sugar	-11.7077
▁testified	-11.7077
▁Baruch	-11.7077
▁whithersoever	-11.7077
▁teen	-11.7077
▁permitted	-11.7077
▁28:2	-11.7078
▁strove	-11.7078
▁believing	-11.7078
▁Darius	-11.7078
▁Juno	-11.7078
▁trod	-11.7078
▁impression	-11.7079
▁offspring	-11.708
▁Garter	-11.708
▁fortress	-11.708
▁assert	-11.7081
▁pageant	-11.7081
▁grandam	-11.7081
▁mature	-11.7082
▁admirable	-11.7084
▁Left	-11.7084
▁surface	-11.7085
▁saddle	-11.7086
▁advanc	-11.7087
▁nearby	-11.7088
▁vexation	-11.7088
▁Feast	-11.7088
▁cancel	-11.7089
▁appointment	-11.7089
▁Thebes	-11.709
▁Abel	-11.7097
▁subjection	-11.7097
▁reside	-11.7102
▁oppressor	-11.7111
▁Eden	-11.7119
aunch	-11.714
▁judg	-11.7146
OWER	-11.7175
▁movie	-11.7178
▁excell	-11.7241
▁provok	-11.7248
▁27:1	-11.7255
▁Prove	-11.7258
▁Gera	-11.726
ICK	-11.7264
▁wrest	-11.7265
teem	-11.7333
▁retir	-11.7342
▁imagin	-11.7359
▁sancti	-11.739
▁pap	-11.7423
consum	-11.7432
▁Russia	-11.7455
▁philosoph	-11.746
known	-11.7463
what	-11.7464
Faerie	-11.7468
▁imprison	-11.7472
▁Abishai	-11.7475
▁Algernon	-11.7475
▁Atlanta	-11.7475
▁Benhadad	-11.7475
▁Betwixt	-11.7475
▁CHAOS	-11.7475
▁CORIN	-11.7475
▁Calymath	-11.7475
▁Catesby	-11.7475
▁Charmian	-11.7475
▁Collatine	-11.7475
▁Colonna	-11.7475
▁Husband	-11.7475
▁MONTAGUE	-11.7475
▁MONTANO	-11.7475
▁Maaseiah	-11.7475
▁Meshullam	-11.7475
▁Mitchell	-11.7475
▁NATHANIEL	-11.7475
▁PHOEBE	-11.7475
▁PORTER	-11.7475
▁Phinehas	-11.7475
▁REIGNIER	-11.7475
▁SILVIUS	-11.7475
▁TITANIA	-11.7475
▁Twixt	-11.7475
▁Ulysses	-11.7475
▁Valley	-11.7475
▁Veeru	-11.7475
▁YOUNG	-11.7475
▁academic	-11.7475
▁affirm	-11.7475
▁drank	-11.7475
▁humility	-11.7475
▁impatient	-11.7475
▁impediment	-11.7475
▁infamy	-11.7475
▁merrily	-11.7475
▁overwhelm	-11.7475
▁principle	-11.7475
▁prologue	-11.7475
▁recreation	-11.7475
▁schedule	-11.7475
▁sensible	-11.7475
▁shroud	-11.7475
▁supreme	-11.7475
▁torpedo	-11.7475
▁witchcraft	-11.7475
▁wolves	-11.7475
▁ylide	-11.7475
▁Adonis	-11.7475
▁Duchess	-11.7475
▁Journal	-11.7475
▁Julius	-11.7475
▁Marilyn	-11.7475
▁Provost	-11.7475
▁Thither	-11.7475
▁centurion	-11.7475
▁cheese	-11.7475
▁cluster	-11.7475
▁synth	-11.7475
▁1999	-11.7475
▁Yield	-11.7475
▁crept	-11.7475
▁dishonest	-11.7475
▁leather	-11.7475
▁session	-11.7475
▁unique	-11.7475
▁unusual	-11.7475
▁vouch	-11.7475
▁1914	-11.7475
▁1918	-11.7475
▁Glory	-11.7475
▁Nebat	-11.7475
▁Pluck	-11.7475
▁Mercy	-11.7475
▁ivory	-11.7475
▁deformed	-11.7475
▁manifold	-11.7475
▁Arnon	-11.7475
▁Shepherd	-11.7475
▁decease	-11.7475
▁cheare	-11.7475
▁Prime	-11.7475
▁Uncle	-11.7475
▁labor	-11.7475
▁Evil	-11.7475
▁Hivite	-11.7475
▁augment	-11.7475
▁Doubt	-11.7475
▁aloft	-11.7475
▁Crown	-11.7475
▁Nestor	-11.7475
Gifford	-11.7475
▁interchange	-11.7476
▁parasite	-11.7476
▁conspiracy	-11.7476
▁fastened	-11.7476
▁Ruth	-11.7476
▁1:6	-11.7476
▁Trans	-11.7476
▁Philippi	-11.7476
▁fraught	-11.7476
▁acute	-11.7476
▁Gaza	-11.7477
▁pilgrimage	-11.7477
▁representative	-11.7477
▁aware	-11.7477
▁DICK	-11.7477
▁Depart	-11.7477
▁favorite	-11.7478
▁vale	-11.7478
▁Commandments	-11.7478
▁dramatic	-11.7478
▁imprisonment	-11.7479
▁Enough	-11.7479
▁traveller	-11.7479
▁echo	-11.7479
▁Lift	-11.748
▁invade	-11.748
▁Fiend	-11.7481
▁panel	-11.7482
▁Twill	-11.7483
▁knighthood	-11.7483
▁barrow	-11.7483
▁Hung	-11.7484
▁ninety	-11.7484
▁Moabites	-11.7484
▁majority	-11.7484
▁Wherewith	-11.7484
▁agreement	-11.7485
▁admiration	-11.7487
▁chick	-11.7487
▁Eros	-11.7487
▁stating	-11.7487
▁southward	-11.7488
▁fleece	-11.749
▁foam	-11.7491
▁Maine	-11.7497
▁lick	-11.7497
▁dating	-11.7498
▁Safe	-11.75
float	-11.7525
▁exception	-11.7577
▁audit	-11.76
appa	-11.7639
▁apostle	-11.7693
keeper	-11.7726
eaten	-11.7768
game	-11.781
▁acquaint	-11.7849
▁diligent	-11.7872
▁greed	-11.7878
▁genera	-11.7879
▁pronounc	-11.7885
▁covetous	-11.789
▁Apemantus	-11.7892
▁Archaeological	-11.7892
▁Aumerle	-11.7892
▁Bassianus	-11.7892
▁Bracknell	-11.7892
▁CERIMON	-11.7892
▁DOLABELLA	-11.7892
▁Earnest	-11.7892
▁Entertainment	-11.7892
▁Fantuzzi	-11.7892
▁Football	-11.7892
▁Grumio	-11.7892
▁Jezebel	-11.7892
▁LARTIUS	-11.7892
▁Octavia	-11.7892
▁PANDULPH	-11.7892
▁Palestinian	-11.7892
▁Pozzobonelli	-11.7892
▁Publius	-11.7892
▁QU	-11.7892
▁Research	-11.7892
▁Rossillon	-11.7892
▁SILENCE	-11.7892
▁Shrewsbury	-11.7892
▁Stoppani	-11.7892
▁Tarshish	-11.7892
▁VINCENTIO	-11.7892
▁acquit	-11.7892
▁analysis	-11.7892
▁astonishment	-11.7892
▁blaze	-11.7892
▁bounteous	-11.7892
▁calculat	-11.7892
▁candidate	-11.7892
▁capacity	-11.7892
▁cinema	-11.7892
▁concert	-11.7892
▁contemporary	-11.7892
▁cudgel	-11.7892
▁demonstrate	-11.7892
▁eliminate	-11.7892
▁extensive	-11.7892
▁fantasy	-11.7892
▁graduate	-11.7892
▁imitation	-11.7892
▁interrupt	-11.7892
▁license	-11.7892
▁mirror	-11.7892
▁nativity	-11.7892
▁parallel	-11.7892
▁pernicious	-11.7892
▁persuasion	-11.7892
▁precedent	-11.7892
▁resolute	-11.7892
▁stanza	-11.7892
▁stricken	-11.7892
▁swoon	-11.7892
▁territory	-11.7892
▁Austria	-11.7892
▁Lachish	-11.7892
▁Perchance	-11.7892
▁Thurio	-11.7892
▁elbow	-11.7892
▁mischance	-11.7892
▁nobody	-11.7892
▁strangle	-11.7892
▁vomit	-11.7892
▁Boaz	-11.7892
▁Company	-11.7892
▁Ekron	-11.7892
▁Glorie	-11.7892
▁shrill	-11.7892
▁1913	-11.7892
▁interior	-11.7892
▁whereupon	-11.7892
▁Jotham	-11.7892
▁Thrice	-11.7892
▁website	-11.7892
▁Japanese	-11.7892
▁snake	-11.7892
▁unwilling	-11.7892
▁Tamar	-11.7892
▁Zerah	-11.7892
▁motive	-11.7892
▁brace	-11.7892
▁Beware	-11.7892
▁Brave	-11.7892
▁alarum	-11.7892
▁melody	-11.7892
▁Comfort	-11.7892
▁refine	-11.7892
▁Mankind	-11.7892
▁Repent	-11.7892
▁Wife	-11.7892
▁masque	-11.7892
▁Coast	-11.7892
▁Crab	-11.7892
▁emptie	-11.7892
▁Region	-11.7892
▁12:4	-11.7892
▁Hospitaller	-11.7892
▁cradle	-11.7892
GLAS	-11.7892
book	-11.7892
▁aviation	-11.7893
▁Health	-11.7893
▁drag	-11.7893
▁championship	-11.7893
▁Amalekites	-11.7893
▁opposition	-11.7893
▁Guardian	-11.7893
▁banner	-11.7893
▁restrict	-11.7894
▁sauce	-11.7894
▁Midianites	-11.7894
▁Daily	-11.7894
▁holp	-11.7895
▁northeast	-11.7895
▁Gentleman	-11.7895
▁marvelled	-11.7895
▁heifer	-11.7896
LEND	-11.7896
▁Sunday	-11.7896
▁assistant	-11.7896
▁26:2	-11.7896
▁yron	-11.7897
▁Irish	-11.7897
▁sunder	-11.7897
▁impact	-11.7898
▁(?)	-11.7898
▁sang	-11.7898
▁spotted	-11.7898
▁flash	-11.7899
▁alongside	-11.7899
▁readiness	-11.7899
▁remission	-11.79
▁12:3	-11.7901
▁stirring	-11.7903
ference	-11.7915
▁broil	-11.7917
LAND	-11.7978
▁wrestle	-11.8118
▁affair	-11.8121
You	-11.814
seeming	-11.8219
▁Shame	-11.8227
▁decide	-11.8275
▁abundant	-11.8307
▁filth	-11.8311
▁easie	-11.8314
based	-11.8321
AKE	-11.8322
▁concept	-11.8324
▁Guard	-11.8325
▁neigh	-11.8327
▁contradict	-11.8327
▁ABBESS	-11.8327
▁ALICE	-11.8327
▁Arsenal	-11.8327
▁Beyonc	-11.8327
▁CONRADE	-11.8327
▁Chamberlain	-11.8327
▁Corioles	-11.8327
▁Ernest	-11.8327
▁Euphrates	-11.8327
▁Fletcher	-11.8327
▁Forasmuch	-11.8327
▁Frederick	-11.8327
▁GARDINER	-11.8327
▁Gremio	-11.8327
▁Hazael	-11.8327
▁Himself	-11.8327
▁Jehoahaz	-11.8327
▁Jehoram	-11.8327
▁Jessica	-11.8327
▁LENNOX	-11.8327
▁LEWIS	-11.8327
▁Mizpah	-11.8327
▁Mizpeh	-11.8327
▁PLAYER	-11.8327
▁Pakistan	-11.8327
▁Perizzite	-11.8327
▁Surrey	-11.8327
▁Zrnyi	-11.8327
▁archipelago	-11.8327
▁brazen	-11.8327
▁brutish	-11.8327
▁carpenter	-11.8327
▁chemotherapy	-11.8327
▁consolation	-11.8327
▁coxcomb	-11.8327
▁deploy	-11.8327
▁elsewhere	-11.8327
▁emphasis	-11.8327
▁innumerable	-11.8327
▁jubile	-11.8327
▁magistrate	-11.8327
▁moderate	-11.8327
▁monsieur	-11.8327
▁opportunities	-11.8327
▁ordinary	-11.8327
▁recognized	-11.8327
▁rheum	-11.8327
▁rhythm	-11.8327
▁ridiculous	-11.8327
▁skilful	-11.8327
▁syllable	-11.8327
▁upbraid	-11.8327
▁velvet	-11.8327
▁violation	-11.8327
▁Globe	-11.8327
▁Major	-11.8327
▁diminish	-11.8327
▁malicious	-11.8327
▁slender	-11.8327
,500	-11.8327
▁Children	-11.8327
▁Dorset	-11.8327
▁Machir	-11.8327
▁Report	-11.8327
▁derision	-11.8327
▁privily	-11.8327
▁budget	-11.8327
▁coronation	-11.8327
▁expanded	-11.8327
▁gloss	-11.8327
▁1985	-11.8327
▁posterity	-11.8327
▁flank	-11.8327
▁senate	-11.8327
▁shaking	-11.8327
▁Next	-11.8327
▁jar	-11.8327
▁expired	-11.8327
▁eager	-11.8327
▁saving	-11.8327
▁Alenon	-11.8327
▁thresh	-11.8327
▁causing	-11.8327
▁Medway	-11.8327
▁swarm	-11.8327
▁detain	-11.8327
▁scorch	-11.8327
▁grandfather	-11.8327
▁morsel	-11.8327
▁Legion	-11.8327
▁stony	-11.8327
▁tickle	-11.8327
▁bereft	-11.8327
▁dropped	-11.8327
▁13:3	-11.8327
▁remote	-11.8327
▁15:4	-11.8327
▁Skie	-11.8327
▁behave	-11.8327
▁Tempt	-11.8327
▁sprite	-11.8327
▁4:4	-11.8327
▁rags	-11.8327
▁withstand	-11.8328
▁Theatre	-11.8328
▁gorgeous	-11.8328
▁criticism	-11.8328
▁receav	-11.8328
▁Hiram	-11.8328
▁permission	-11.8329
▁Train	-11.8329
▁insult	-11.8329
▁observance	-11.8329
▁14:3	-11.833
▁repay	-11.833
▁lute	-11.833
▁Grant	-11.833
▁legend	-11.833
▁preferred	-11.833
▁Francisco	-11.833
▁Lightning	-11.8331
▁claw	-11.8331
▁missile	-11.8331
▁9:3	-11.8334
▁brim	-11.8335
▁grind	-11.8336
▁Born	-11.8338
▁Fast	-11.834
▁Media	-11.834
▁infer	-11.8393
▁troubl	-11.855
▁approv	-11.8582
▁excel	-11.8586
▁beguil	-11.8604
RATE	-11.8605
favoured	-11.8677
▁shrew	-11.8724
▁fence	-11.8731
▁clip	-11.8739
scribed	-11.8742
▁reject	-11.8748
disc	-11.8765
▁1:14	-11.8781
▁Approach	-11.8781
▁Ashdod	-11.8781
▁BARNARDO	-11.8781
▁Beshrew	-11.8781
▁Bristol	-11.8781
▁CRANMER	-11.8781
▁CROMWELL	-11.8781
▁Christendom	-11.8781
▁Cominius	-11.8781
▁Concerning	-11.8781
▁Confess	-11.8781
▁Cordelia	-11.8781
▁Dynasty	-11.8781
▁Elephant	-11.8781
▁Epistle	-11.8781
▁Glendower	-11.8781
▁Industry	-11.8781
▁Longacre	-11.8781
▁MESSALA	-11.8781
▁Naboth	-11.8781
▁Octavius	-11.8781
▁PEDANT	-11.8781
▁PEMBROKE	-11.8781
▁Pandarus	-11.8781
▁Public	-11.8781
▁Science	-11.8781
▁Shylock	-11.8781
▁Survey	-11.8781
▁Vincentio	-11.8781
▁Virtue	-11.8781
▁Worcester	-11.8781
▁Zerubbabel	-11.8781
▁adverse	-11.8781
▁blasphemy	-11.8781
▁constancy	-11.8781
▁diligence	-11.8781
▁draught	-11.8781
▁economy	-11.8781
▁impatience	-11.8781
▁literary	-11.8781
▁mistook	-11.8781
▁napkin	-11.8781
▁pavilion	-11.8781
▁perjury	-11.8781
▁persecution	-11.8781
▁pigeons	-11.8781
▁possibility	-11.8781
▁premiere	-11.8781
▁respond	-11.8781
▁simplicity	-11.8781
▁tournament	-11.8781
▁Ancient	-11.8781
▁Rowson	-11.8781
▁privy	-11.8781
▁stool	-11.8781
▁1937	-11.8781
▁1992	-11.8781
▁1997	-11.8781
▁Creator	-11.8781
▁DOU	-11.8781
▁Muslim	-11.8781
▁censer	-11.8781
▁neighbor	-11.8781
▁eminent	-11.8781
▁pirate	-11.8781
▁Forthwith	-11.8781
▁Squire	-11.8781
▁clown	-11.8781
▁praising	-11.8781
▁Nabal	-11.8781
▁bridle	-11.8781
▁whereunto	-11.8781
▁Classic	-11.8781
▁contemn	-11.8781
▁welkin	-11.8781
▁Titan	-11.8781
▁ditch	-11.8781
▁aloof	-11.8781
▁Remain	-11.8781
▁carving	-11.8781
▁worthiest	-11.8781
▁hymn	-11.8781
▁brimstone	-11.8781
▁minion	-11.8781
▁battleships	-11.8781
▁wedded	-11.8781
▁Lyon	-11.8781
▁pastime	-11.8782
▁sinneth	-11.8782
▁3:6	-11.8782
▁alarm	-11.8782
▁6:4	-11.8782
▁3:4	-11.8782
▁2:4	-11.8782
▁heinous	-11.8782
▁organized	-11.8782
▁basic	-11.8783
▁riddle	-11.8783
▁option	-11.8783
Matthew	-11.8784
▁victorious	-11.8784
▁Compare	-11.8785
▁Towards	-11.8786
▁Baby	-11.8786
▁Jackson	-11.8787
▁Fox	-11.8787
▁chew	-11.8793
▁connection	-11.8814
▁valu	-11.9033
▁skip	-11.9046
minded	-11.9179
▁assemble	-11.9201
▁displeas	-11.9214
shaped	-11.9216
Every	-11.925
grown	-11.925
match	-11.9252
wait	-11.9254
▁venge	-11.9256
▁transfer	-11.9256
▁lascivious	-11.9257
▁Ariosto	-11.9257
▁Bethshemesh	-11.9257
▁CINNA	-11.9257
▁CURTIS	-11.9257
▁Cawdor	-11.9257
▁Clinton	-11.9257
▁Cloten	-11.9257
▁Cornelius	-11.9257
▁Elkanah	-11.9257
▁Esaias	-11.9257
▁FENTON	-11.9257
▁FREDERICK	-11.9257
▁GOBBO	-11.9257
▁GUARD	-11.9257
▁Hermione	-11.9257
▁Knowledge	-11.9257
▁Leicester	-11.9257
▁MUSIC	-11.9257
▁Naomi	-11.9257
▁OCTAVIUS	-11.9257
▁Obadiah	-11.9257
▁Ophelia	-11.9257
▁Oregon	-11.9257
▁Portuguese	-11.9257
▁Proclaim	-11.9257
▁SAMPSON	-11.9257
▁Shushan	-11.9257
▁Timbaland	-11.9257
▁Titinius	-11.9257
▁Vergil	-11.9257
▁applause	-11.9257
▁apprehension	-11.9257
▁assassination	-11.9257
▁betrothed	-11.9257
▁breeches	-11.9257
▁casket	-11.9257
▁convocation	-11.9257
▁crimson	-11.9257
▁dedication	-11.9257
▁disobedience	-11.9257
▁dynamic	-11.9257
▁embark	-11.9257
▁energy	-11.9257
▁epitaph	-11.9257
▁exclude	-11.9257
▁facilities	-11.9257
▁frigate	-11.9257
▁gaol	-11.9257
▁intercept	-11.9257
▁misfortune	-11.9257
▁negative	-11.9257
▁outbreak	-11.9257
▁possibly	-11.9257
▁pregnancy	-11.9257
▁puppet	-11.9257
▁receipt	-11.9257
▁rehearse	-11.9257
▁scroll	-11.9257
▁stablish	-11.9257
▁surpass	-11.9257
▁Beauty	-11.9257
▁Chorus	-11.9257
▁Evans	-11.9257
▁buzz	-11.9257
▁fickle	-11.9257
▁jack	-11.9257
▁massacre	-11.9257
▁meditation	-11.9257
▁nineteen	-11.9257
▁robbery	-11.9257
▁thrift	-11.9257
▁violet	-11.9257
▁Briton	-11.9257
▁Building	-11.9257
▁Corinth	-11.9257
▁Ithamar	-11.9257
▁Sisera	-11.9257
▁compact	-11.9257
▁invasion	-11.9257
▁Haddock	-11.9257
▁ambush	-11.9257
▁zone	-11.9257
▁cleft	-11.9257
▁purity	-11.9257
▁quaint	-11.9257
▁levy	-11.9257
▁Labour	-11.9257
▁constable	-11.9257
▁squire	-11.9257
▁Small	-11.9257
▁confused	-11.9257
▁gilded	-11.9257
▁Gainst	-11.9257
▁serial	-11.9257
▁visible	-11.9257
▁thrill	-11.9257
▁unruly	-11.9257
▁31:2	-11.9257
▁Croatia	-11.9257
▁gallery	-11.9258
▁Achish	-11.9258
▁phase	-11.9258
▁nave	-11.9258
▁spider	-11.9258
▁Haply	-11.9258
▁6:7	-11.9258
▁ladder	-11.9258
▁xxi	-11.9258
▁ashore	-11.9258
▁featuring	-11.9258
▁involving	-11.9258
▁carnal	-11.9258
▁Amasa	-11.9259
▁churlish	-11.9259
-44	-11.9259
▁transgressors	-11.9259
▁Forget	-11.926
▁baseball	-11.926
▁Paulina	-11.926
▁Drink	-11.926
▁allusion	-11.9261
▁Tripoli	-11.9261
▁threatning	-11.9261
▁Villa	-11.9261
▁legions	-11.9261
▁relish	-11.9262
▁entice	-11.9263
▁waist	-11.9263
▁Child	-11.9264
monger	-11.9265
▁WOM	-11.9265
▁24:2	-11.9267
▁18:3	-11.9273
See	-11.9391
▁dough	-11.9425
▁surpris	-11.9554
acks	-11.9633
▁trap	-11.9693
▁estimate	-11.97
▁encamp	-11.9716
white	-11.975
glass	-11.9751
▁pilgrim	-11.9755
HILL	-11.9757
▁ANTIGONUS	-11.9757
▁Abijah	-11.9757
▁Ahijah	-11.9757
▁Ahikam	-11.9757
▁Ahithophel	-11.9757
▁Almightie	-11.9757
▁Appear	-11.9757
▁CANTERBURY	-11.9757
▁CLEON	-11.9757
▁Corvino	-11.9757
▁DIONYZA	-11.9757
▁Erzherzog	-11.9757
▁Festival	-11.9757
▁GOOD	-11.9757
▁Gwendolen	-11.9757
▁MAYOR	-11.9757
▁Milford	-11.9757
▁Nethaniah	-11.9757
▁Obededom	-11.9757
▁RATCLIFFE	-11.9757
▁ROMAN	-11.9757
▁Rosaline	-11.9757
▁Rutland	-11.9757
▁SCHOOLMASTER	-11.9757
▁Seraiah	-11.9757
▁URSULA	-11.9757
▁Yourself	-11.9757
▁application	-11.9757
▁archbishop	-11.9757
▁arsenal	-11.9757
▁clergy	-11.9757
▁commence	-11.9757
▁commodity	-11.9757
▁cuckoo	-11.9757
▁disobedient	-11.9757
▁dunghill	-11.9757
▁ensemble	-11.9757
▁entitle	-11.9757
▁forasmuch	-11.9757
▁fragilis	-11.9757
▁hairstyle	-11.9757
▁illustrate	-11.9757
▁magnify	-11.9757
▁manufacture	-11.9757
▁obligation	-11.9757
▁palsy	-11.9757
▁perjured	-11.9757
▁piercing	-11.9757
▁preceding	-11.9757
▁primarily	-11.9757
▁sacrament	-11.9757
▁soundtrack	-11.9757
▁stubble	-11.9757
▁sulfide	-11.9757
▁tragedy	-11.9757
▁vintage	-11.9757
▁vulture	-11.9757
▁Chinese	-11.9757
▁Leonard	-11.9757
▁Protestant	-11.9757
▁Tasso	-11.9757
▁Thakur	-11.9757
▁background	-11.9757
▁bewitch	-11.9757
▁frantic	-11.9757
▁penitent	-11.9757
▁replacement	-11.9757
▁tapster	-11.9757
▁tumble	-11.9757
▁turtle	-11.9757
▁vanities	-11.9757
▁Tongue	-11.9757
▁curtsy	-11.9757
▁likelihood	-11.9757
▁plough	-11.9757
▁sullen	-11.9757
▁1936	-11.9757
▁1946	-11.9757
▁1982	-11.9757
▁Courage	-11.9757
▁coffin	-11.9757
▁overlook	-11.9757
▁superior	-11.9757
▁withdrew	-11.9757
▁1984	-11.9757
▁Chariot	-11.9757
▁Nadab	-11.9757
▁perdition	-11.9757
▁surmise	-11.9757
▁Seraph	-11.9757
▁wrapped	-11.9757
▁Close	-11.9757
▁Hezron	-11.9757
▁Jonah	-11.9757
▁extent	-11.9757
▁micro	-11.9757
▁CAA	-11.9757
▁column	-11.9757
▁lungs	-11.9757
▁robbers	-11.9757
▁Khan	-11.9757
▁Aviation	-11.9757
▁Wang	-11.9758
▁Zounds	-11.9758
▁supple	-11.9758
▁compete	-11.9758
▁odious	-11.9758
▁darkened	-11.9758
▁raid	-11.9758
▁importune	-11.9758
▁1:5	-11.9758
▁tragic	-11.9758
▁maidenhead	-11.9759
▁Forbid	-11.9759
▁calves	-11.9759
▁criticized	-11.9759
▁bigger	-11.9759
▁27:2	-11.9759
▁Sidon	-11.9759
▁shipping	-11.9759
▁residence	-11.9759
▁confront	-11.9759
▁abusd	-11.976
▁Weep	-11.976
▁acid	-11.9761
create	-11.9761
▁inquire	-11.9762
▁truce	-11.9762
▁vital	-11.9763
▁Csar	-11.9763
▁dower	-11.9764
▁usurer	-11.9768
▁Cush	-11.9779
▁doleful	-11.9798
▁Martin	-11.9814
▁Pleas	-11.982
▁beseem	-11.9875
change	-12.0038
▁chronicle	-12.0077
▁paw	-12.0223
▁launch	-12.0243
related	-12.0259
Orlando	-12.0277
American	-12.0277
guard	-12.0277
▁product	-12.0278
▁advent	-12.0282
▁ALENON	-12.0284
▁Aircraft	-12.0284
▁BROTHER	-12.0284
▁Broadway	-12.0284
▁CORNELIUS	-12.0284
▁California	-12.0284
▁Christopher	-12.0284
▁Confederate	-12.0284
▁Cromwell	-12.0284
▁DUNCAN	-12.0284
▁Dispatch	-12.0284
▁Fountain	-12.0284
▁Geastrum	-12.0284
▁Gomorrah	-12.0284
▁Hollywood	-12.0284
▁Hotspur	-12.0284
▁Kirjath	-12.0284
▁Laboratory	-12.0284
▁Mercury	-12.0284
▁Mercutio	-12.0284
▁Messala	-12.0284
▁Nerissa	-12.0284
▁Nineveh	-12.0284
▁Original	-12.0284
▁Phoenix	-12.0284
▁Pucelle	-12.0284
▁Raleigh	-12.0284
▁Ramothgilead	-12.0284
▁Rugby	-12.0284
▁SANDYS	-12.0284
▁SIMPCOX	-12.0284
▁Sebastian	-12.0284
▁Stretch	-12.0284
▁Succoth	-12.0284
▁VERGES	-12.0284
▁Volsces	-12.0284
▁Vouchsafe	-12.0284
▁Warsaw	-12.0284
▁Washington	-12.0284
▁Wednesday	-12.0284
▁Yonder	-12.0284
▁Zapata	-12.0284
▁arranged	-12.0284
▁attentive	-12.0284
▁ceremonies	-12.0284
▁dictator	-12.0284
▁distribution	-12.0284
▁drowsy	-12.0284
▁engrave	-12.0284
▁infirmities	-12.0284
▁ingratitude	-12.0284
▁insolence	-12.0284
▁leukemic	-12.0284
▁merriment	-12.0284
▁neutral	-12.0284
▁oblivion	-12.0284
▁ordnance	-12.0284
▁quantity	-12.0284
▁radiant	-12.0284
▁sequence	-12.0284
▁stratagem	-12.0284
▁striking	-12.0284
▁threshingfloor	-12.0284
▁treasury	-12.0284
▁tropical	-12.0284
▁vehement	-12.0284
▁villany	-12.0284
▁wrauth	-12.0284
▁ENTER	-12.0284
▁Macduff	-12.0284
▁arrant	-12.0284
▁defiance	-12.0284
▁frozen	-12.0284
▁globe	-12.0284
▁lecture	-12.0284
▁moiety	-12.0284
▁ourself	-12.0284
▁reinforce	-12.0284
▁Produce	-12.0284
▁creating	-12.0284
▁1993	-12.0284
▁Emily	-12.0284
▁Hazor	-12.0284
▁avouch	-12.0284
▁knop	-12.0284
▁1911	-12.0284
▁Tubal	-12.0284
▁Hymen	-12.0284
▁convoy	-12.0284
▁gentry	-12.0284
▁gesture	-12.0284
▁drench	-12.0284
▁fetter	-12.0284
▁skies	-12.0284
▁Fenton	-12.0284
▁ingenious	-12.0284
▁personnel	-12.0284
▁archery	-12.0284
▁Type	-12.0284
▁leek	-12.0284
▁blend	-12.0284
▁stripped	-12.0284
▁Brought	-12.0284
▁contest	-12.0284
▁basons	-12.0284
▁Style	-12.0284
▁gulf	-12.0284
▁Cleon	-12.0284
▁Forgive	-12.0284
▁20:3	-12.0284
▁cert	-12.0284
▁tissue	-12.0284
▁IRAS	-12.0284
▁11:4	-12.0284
▁Wait	-12.0284
▁6:5	-12.0284
▁schoolmaster	-12.0284
▁3:5	-12.0284
▁alliance	-12.0285
▁broadcast	-12.0285
▁furrow	-12.0285
▁Salute	-12.0285
▁acres	-12.0286
▁visor	-12.0286
▁chafe	-12.0286
▁extol	-12.0286
▁19:3	-12.0296
▁seis	-12.0309
▁Holla	-12.031
▁tilt	-12.0344
facd	-12.0396
Politic	-12.0621
room	-12.069
FISH	-12.0707
▁mingle	-12.0783
▁Baptist	-12.0792
▁fra	-12.0823
constant	-12.0832
twenty	-12.0832
God	-12.0833
▁Further	-12.0839
▁Alcibiades	-12.0839
▁Antipholus	-12.0839
▁Canterbury	-12.0839
▁Destroy	-12.0839
▁EGEON	-12.0839
▁Ethereal	-12.0839
▁Feelings	-12.0839
▁Fulvia	-12.0839
▁Gambia	-12.0839
▁HERALD	-12.0839
▁Hurricane	-12.0839
▁Immediate	-12.0839
▁Katharine	-12.0839
▁Keilah	-12.0839
▁Kirjathjearim	-12.0839
▁LIEUTENANT	-12.0839
▁Libnah	-12.0839
▁Maachah	-12.0839
▁Micaiah	-12.0839
▁Monica	-12.0839
▁Monmouth	-12.0839
▁Nethinims	-12.0839
▁Pacific	-12.0839
▁Revolution	-12.0839
▁Stephano	-12.0839
▁Swedish	-12.0839
▁TYBALT	-12.0839
▁Thaisa	-12.0839
▁Tirzah	-12.0839
▁Trinculo	-12.0839
▁VOLPONE	-12.0839
▁Vertue	-12.0839
▁Vienna	-12.0839
▁adversity	-12.0839
▁applaud	-12.0839
▁armourbearer	-12.0839
▁attorney	-12.0839
▁bountiful	-12.0839
▁collaboration	-12.0839
▁comprehend	-12.0839
▁confederate	-12.0839
▁confiscate	-12.0839
▁criminal	-12.0839
▁defensive	-12.0839
▁epistle	-12.0839
▁epithet	-12.0839
▁executive	-12.0839
▁glittering	-12.0839
▁goldsmith	-12.0839
▁guidance	-12.0839
▁homosexual	-12.0839
▁insomuch	-12.0839
▁intellectual	-12.0839
▁intercession	-12.0839
▁irregular	-12.0839
▁kidneys	-12.0839
▁library	-12.0839
▁miscarry	-12.0839
▁nominated	-12.0839
▁nunnery	-12.0839
▁parliament	-12.0839
▁puissance	-12.0839
▁reconciliation	-12.0839
▁salutation	-12.0839
▁secrecy	-12.0839
▁sequel	-12.0839
▁shewbread	-12.0839
▁stagger	-12.0839
▁victim	-12.0839
▁voluntary	-12.0839
▁Jehiel	-12.0839
▁Montreal	-12.0839
▁Studies	-12.0839
▁Tennant	-12.0839
▁Watson	-12.0839
▁communication	-12.0839
▁delicious	-12.0839
▁multiple	-12.0839
▁sparrow	-12.0839
▁trivial	-12.0839
▁Darwin	-12.0839
▁Naaman	-12.0839
▁fathom	-12.0839
▁imperfect	-12.0839
▁pavement	-12.0839
▁solitary	-12.0839
▁1926	-12.0839
▁1929	-12.0839
▁Behind	-12.0839
▁Question	-12.0839
▁drave	-12.0839
▁generous	-12.0839
▁meditate	-12.0839
▁winepress	-12.0839
▁Manoah	-12.0839
▁Silver	-12.0839
▁committee	-12.0839
▁therapy	-12.0839
▁Apostle	-12.0839
▁closing	-12.0839
▁corpse	-12.0839
▁Tarry	-12.0839
▁lump	-12.0839
▁Exceed	-12.0839
▁agency	-12.0839
▁battalion	-12.0839
▁praisd	-12.0839
▁chamberlain	-12.0839
▁implement	-12.0839
▁gnaw	-12.0839
▁Suffer	-12.0839
▁Asahel	-12.0839
▁palate	-12.0839
▁Advanc	-12.0839
▁eyne	-12.0839
▁Furthermore	-12.0839
▁Abyss	-12.0839
▁carrion	-12.0839
▁2:16	-12.0839
▁oven	-12.0839
▁repeal	-12.0839
▁bewray	-12.084
▁citing	-12.084
▁amateur	-12.084
▁assurd	-12.084
▁Omri	-12.084
▁certified	-12.084
▁regal	-12.084
▁Intend	-12.084
▁filthiness	-12.084
▁13:5	-12.084
▁9:4	-12.084
▁frogs	-12.084
▁3:8	-12.084
OCK	-12.084
▁Claws	-12.084
▁2:8	-12.084
▁Belial	-12.084
▁ague	-12.084
▁Brand	-12.0841
▁Tiger	-12.0841
▁baleful	-12.0841
▁bribe	-12.0841
▁32:2	-12.0841
▁33:2	-12.0842
▁Realm	-12.0844
▁6:6	-12.0845
▁27:3	-12.0845
▁2:6	-12.0846
▁lease	-12.0848
▁16:3	-12.085
▁disclose	-12.0907
drawn	-12.1083
gorg	-12.1091
▁obscur	-12.1211
iddle	-12.1242
▁practis	-12.1292
roba	-12.1332
▁wrap	-12.135
▁dedicate	-12.1371
chief	-12.142
giving	-12.142
black	-12.1421
worn	-12.1421
▁gorge	-12.1427
OUGH	-12.1427
▁AUSTRIA	-12.1427
▁Athaliah	-12.1427
▁BANDIT	-12.1427
▁BLUNT	-12.1427
▁Brethren	-12.1427
▁Corporation	-12.1427
▁Corrupt	-12.1427
▁Descend	-12.1427
▁Duncan	-12.1427
▁Eliashib	-12.1427
▁Faery	-12.1427
▁GAOLER	-12.1427
▁Gratiano	-12.1427
▁ISBN	-12.1427
▁Importance	-12.1427
▁Jehoash	-12.1427
▁Kadesh	-12.1427
▁LAVINIA	-12.1427
▁Leonatus	-12.1427
▁Menenius	-12.1427
▁Military	-12.1427
▁Morrison	-12.1427
▁Nicholas	-12.1427
▁Palenque	-12.1427
▁Paynim	-12.1427
▁Polixenes	-12.1427
▁Pomfret	-12.1427
▁SIWARD	-12.1427
▁SOLANIO	-12.1427
▁Sansfoy	-12.1427
▁Sidney	-12.1427
▁Similar	-12.1427
▁Sippy	-12.1427
▁Thursday	-12.1427
▁Timotheus	-12.1427
▁Twenty	-12.1427
▁Venetian	-12.1427
▁acclaim	-12.1427
▁administration	-12.1427
▁appertain	-12.1427
▁autumn	-12.1427
▁backsliding	-12.1427
▁carbonaria	-12.1427
▁centuries	-12.1427
▁chemical	-12.1427
▁collapse	-12.1427
▁cymbals	-12.1427
▁degenerate	-12.1427
▁diadem	-12.1427
▁diameter	-12.1427
▁dignities	-12.1427
▁divination	-12.1427
▁eloquence	-12.1427
▁encompass	-12.1427
▁enroll	-12.1427
▁entrails	-12.1427
▁exempt	-12.1427
▁exquisite	-12.1427
▁footstool	-12.1427
▁frankincense	-12.1427
▁frustrate	-12.1427
▁furniture	-12.1427
▁inclination	-12.1427
▁knives	-12.1427
▁lunatic	-12.1427
▁narrative	-12.1427
▁nickname	-12.1427
▁opponent	-12.1427
▁pretence	-12.1427
▁qualified	-12.1427
▁recreant	-12.1427
▁repetition	-12.1427
▁resemblance	-12.1427
▁symmetrical	-12.1427
▁technical	-12.1427
▁temperature	-12.1427
▁uncouth	-12.1427
▁variant	-12.1427
▁Counsel	-12.1427
▁Decree	-12.1427
▁Possess	-12.1427
▁Remove	-12.1427
▁climate	-12.1427
▁disagree	-12.1427
▁fancies	-12.1427
▁myrrh	-12.1427
▁propaganda	-12.1427
▁renamed	-12.1427
▁uproar	-12.1427
▁Furioso	-12.1427
▁Rechab	-12.1427
▁1972	-12.1427
▁1989	-12.1427
▁Brief	-12.1427
▁follies	-12.1427
▁imperious	-12.1427
▁1861	-12.1427
▁1889	-12.1427
▁1938	-12.1427
▁1975	-12.1427
▁contact	-12.1427
▁portico	-12.1427
▁Created	-12.1427
▁howbeit	-12.1427
▁shilling	-12.1427
▁whale	-12.1427
▁Nahor	-12.1427
▁alleged	-12.1427
▁daintie	-12.1428
▁Shield	-12.1428
▁Thames	-12.1428
▁Aroer	-12.1428
▁1:15	-12.1428
▁Southern	-12.1428
▁visual	-12.1428
▁abject	-12.1428
▁Horeb	-12.1428
▁Strong	-12.1428
▁oftentimes	-12.1428
▁dropping	-12.1428
▁Honest	-12.1428
▁solace	-12.1428
▁ensign	-12.1428
▁sence	-12.1428
▁Clement	-12.1428
▁thwart	-12.1428
▁15:5	-12.1428
▁glee	-12.1428
▁1:9	-12.1428
▁10:4	-12.1428
▁gaud	-12.1428
▁8:5	-12.1428
ROW	-12.1428
▁weaver	-12.1428
▁presage	-12.1428
▁unarm	-12.1429
caliber	-12.1429
▁Engin	-12.1431
▁38:2	-12.1431
▁Terri	-12.1432
eminence	-12.1433
▁foresee	-12.1436
LOW	-12.1492
▁Shoba	-12.1555
closed	-12.1867
▁achiev	-12.1913
▁typical	-12.2033
▁TRI	-12.2034
language	-12.2045
shrine	-12.2046
cloth	-12.2046
▁1648.]	-12.2052
▁ALEXAS	-12.2052
▁Additionally	-12.2052
▁Adventure	-12.2052
▁Ahimelech	-12.2052
▁Alarums	-12.2052
▁Anathoth	-12.2052
▁Angiers	-12.2052
▁Anjou	-12.2052
▁Benjamite	-12.2052
▁Brittany	-12.2052
▁CARRI	-12.2052
▁Capernaum	-12.2052
▁Cesario	-12.2052
▁DULL	-12.2052
▁Enobarbus	-12.2052
▁Florentine	-12.2052
▁GREAT	-12.2052
▁GREGORY	-12.2052
▁HORSE	-12.2052
▁Infantry	-12.2052
▁Jephunneh	-12.2052
▁LUCILIUS	-12.2052
▁Lawrence	-12.2052
▁Lazarus	-12.2052
▁Lucilius	-12.2052
▁MAECENAS	-12.2052
▁Memorial	-12.2052
▁Mumbai	-12.2052
▁OXFORD	-12.2052
▁Rabshakeh	-12.2052
▁Sansjoy	-12.2052
▁Sansloy	-12.2052
▁Saturday	-12.2052
▁Saturnine	-12.2052
▁Thyself	-12.2052
▁Transport	-12.2052
▁VALERIA	-12.2052
▁Volscian	-12.2052
▁Ziba	-12.2052
▁abnormal	-12.2052
▁abstract	-12.2052
▁adaptation	-12.2052
▁admonish	-12.2052
▁blazon	-12.2052
▁brutal	-12.2052
▁chimney	-12.2052
▁cistern	-12.2052
▁corporal	-12.2052
▁deliberate	-12.2052
▁ensample	-12.2052
▁espous	-12.2052
▁external	-12.2052
▁fervent	-12.2052
▁gavst	-12.2052
▁genealogy	-12.2052
▁gradually	-12.2052
▁humorous	-12.2052
▁identify	-12.2052
▁impudent	-12.2052
▁longsuffering	-12.2052
▁manuscript	-12.2052
▁predominant	-12.2052
▁qualify	-12.2052
▁sapphire	-12.2052
▁senior	-12.2052
▁shovel	-12.2052
▁significance	-12.2052
▁striving	-12.2052
▁theatrical	-12.2052
▁tyrannous	-12.2052
▁unbelief	-12.2052
▁variable	-12.2052
▁vehicle	-12.2052
▁voutsaf	-12.2052
▁Allegory	-12.2052
▁Amariah	-12.2052
▁Congress	-12.2052
▁Deserve	-12.2052
▁Express	-12.2052
▁Monarch	-12.2052
▁Rimmon	-12.2052
▁aspiring	-12.2052
▁bubble	-12.2052
▁comprise	-12.2052
▁crutch	-12.2052
▁discreet	-12.2052
▁dispossess	-12.2052
▁interaction	-12.2052
▁licence	-12.2052
▁mutton	-12.2052
▁scientific	-12.2052
▁unequal	-12.2052
▁unlawful	-12.2052
▁vertuous	-12.2052
▁Commit	-12.2052
▁Widow	-12.2052
▁psalm	-12.2052
▁Knock	-12.2052
▁PART	-12.2052
millimeter	-12.2052
▁1987	-12.2052
▁Monster	-12.2052
▁perfet	-12.2052
▁pike	-12.2052
▁probable	-12.2052
▁tween	-12.2052
▁vigour	-12.2052
▁Sacred	-12.2052
▁Tiber	-12.2052
▁pagan	-12.2052
▁worldwide	-12.2052
▁1945	-12.2052
▁impeach	-12.2052
▁Toronto	-12.2052
▁inflict	-12.2052
▁whistle	-12.2052
▁Albans	-12.2052
▁Study	-12.2052
▁snail	-12.2052
▁SMS	-12.2052
▁gnash	-12.2053
▁Prior	-12.2053
▁Pursue	-12.2053
▁desiring	-12.2053
▁lingring	-12.2053
▁salary	-12.2053
▁Plead	-12.2053
▁airfields	-12.2053
▁wrongfully	-12.2053
▁3:15	-12.2053
▁harness	-12.2053
▁jolly	-12.2053
▁2:15	-12.2053
OULD	-12.2053
▁martyr	-12.2053
▁Creation	-12.2053
▁Jaques	-12.2053
▁bewail	-12.2053
▁drain	-12.2053
▁Lodge	-12.2053
▁farthest	-12.2053
▁prowess	-12.2053
▁Oliver	-12.2053
▁wedlock	-12.2053
▁Breath	-12.2053
▁salve	-12.2053
inich	-12.2053
▁shortened	-12.2053
▁7:6	-12.2053
▁befell	-12.2053
▁repast	-12.2053
▁AoT	-12.2053
5:14	-12.2053
▁intersect	-12.2054
▁appel	-12.2055
▁31:3	-12.2056
▁convict	-12.2056
▁meteor	-12.2057
▁25:3	-12.2062
▁Shut	-12.2066
▁Carol	-12.2068
wearied	-12.2141
▁Livin	-12.219
topping	-12.2407
▁citizen	-12.2513
serving	-12.2608
▁smil	-12.2675
▁subsequent	-12.2699
member	-12.2706
writing	-12.2712
▁ANGEL	-12.2716
▁Hospital	-12.2718
COURSER	-12.2719
▁1:10	-12.2719
▁Abednego	-12.2719
▁Ahimaaz	-12.2719
▁Artaxerxes	-12.2719
▁Audrey	-12.2719
▁BASSIANUS	-12.2719
▁BEAU	-12.2719
▁CAMPEIUS	-12.2719
▁CAPHIS	-12.2719
▁Cabral	-12.2719
▁Chaucer	-12.2719
▁Citizens	-12.2719
▁Corbaccio	-12.2719
▁Cricket	-12.2719
▁Croydon	-12.2719
▁Eevning	-12.2719
▁Eliakim	-12.2719
▁Eliezer	-12.2719
▁Eliphaz	-12.2719
▁Energy	-12.2719
▁Gregory	-12.2719
▁Hashabiah	-12.2719
▁Hecuba	-12.2719
▁Helicanus	-12.2719
▁Hippolyta	-12.2719
▁Kurstin	-12.2719
▁LUCIFER	-12.2719
▁LUCY	-12.2719
▁Library	-12.2719
▁Marquess	-12.2719
▁Menelaus	-12.2719
▁Mephibosheth	-12.2719
▁Ministry	-12.2719
▁Mytilene	-12.2719
▁Natural	-12.2719
▁Navarre	-12.2719
▁Nebuzaradan	-12.2719
▁OCTAVIA	-12.2719
▁Orozco	-12.2719
▁PANTINO	-12.2719
▁PHILARIO	-12.2719
▁Parolles	-12.2719
▁Patterson	-12.2719
▁RICHMOND	-12.2719
▁Ratcliffe	-12.2719
▁Scroop	-12.2719
▁Shadrach	-12.2719
▁Stafford	-12.2719
▁Suppose	-12.2719
▁Susquehanna	-12.2719
▁THOMAS	-12.2719
▁Tamburlaine	-12.2719
▁Thaksin	-12.2719
▁Treasury	-12.2719
▁Triumph	-12.2719
▁Wizards	-12.2719
▁Ziklag	-12.2719
▁aggressive	-12.2719
▁airspace	-12.2719
▁approbation	-12.2719
▁bankrupt	-12.2719
▁braggart	-12.2719
▁caricature	-12.2719
▁circulation	-12.2719
▁clamorous	-12.2719
▁contemplation	-12.2719
▁context	-12.2719
▁contribution	-12.2719
▁custody	-12.2719
▁demonstration	-12.2719
▁dissension	-12.2719
▁divinity	-12.2719
▁ecstasy	-12.2719
▁embassy	-12.2719
▁eternity	-12.2719
▁facility	-12.2719
▁faculty	-12.2719
▁fencing	-12.2719
▁goaltender	-12.2719
▁intimate	-12.2719
▁legitimate	-12.2719
▁memorable	-12.2719
▁negligence	-12.2719
▁niggard	-12.2719
▁overthrew	-12.2719
▁paltry	-12.2719
▁perception	-12.2719
▁psalteries	-12.2719
▁puissant	-12.2719
▁ruthless	-12.2719
▁similitude	-12.2719
▁surrounded	-12.2719
▁uncircumcision	-12.2719
▁universities	-12.2719
▁unprofitable	-12.2719
▁welfare	-12.2719
▁yesternight	-12.2719
▁Ahitub	-12.2719
▁Confound	-12.2719
▁DVD	-12.2719
▁Deputy	-12.2719
▁Emmy	-12.2719
▁Geshur	-12.2719
▁Gracious	-12.2719
▁Marlowe	-12.2719
▁Meshach	-12.2719
▁Miriam	-12.2719
▁Rowland	-12.2719
▁Satyrane	-12.2719
▁Trophy	-12.2719
▁Zimri	-12.2719
▁basilisk	-12.2719
▁behavior	-12.2719
▁belovd	-12.2719
▁bulwark	-12.2719
▁chaos	-12.2719
▁computer	-12.2719
▁conjecture	-12.2719
▁cytogenetic	-12.2719
▁eclipse	-12.2719
▁exclamation	-12.2719
▁insurrection	-12.2719
▁leopard	-12.2719
▁prostrate	-12.2719
▁survivor	-12.2719
▁unhallow	-12.2719
▁Amazon	-12.2719
▁Dwight	-12.2719
▁Expect	-12.2719
▁Physic	-12.2719
▁bracelets	-12.2719
▁expedient	-12.2719
▁libertie	-12.2719
▁paradise	-12.2719
▁paramour	-12.2719
▁wizard	-12.2719
▁Finally	-12.2719
▁Milton	-12.2719
▁Sicily	-12.2719
▁Whereupon	-12.2719
▁loftie	-12.2719
▁nuncle	-12.2719
▁proffer	-12.2719
▁remix	-12.2719
▁Orsino	-12.2719
▁Pluto	-12.2719
▁buffet	-12.2719
▁dispraise	-12.2719
▁knell	-12.2719
▁sponsor	-12.2719
▁varied	-12.2719
▁1910	-12.2719
▁1935	-12.2719
▁intolerable	-12.2719
▁nightingale	-12.2719
▁waving	-12.2719
▁Ralph	-12.2719
▁bonnet	-12.2719
▁pulse	-12.2719
▁undeserv	-12.2719
▁ravin	-12.2719
▁Disdain	-12.2719
▁Jahaz	-12.2719
▁raze	-12.2719
▁Cinna	-12.2719
▁edify	-12.2719
▁explore	-12.2719
▁Shadow	-12.2719
▁Regent	-12.2719
▁epic	-12.2719
▁communicate	-12.2719
▁sheriff	-12.2719
▁Sorrow	-12.2719
▁abbey	-12.2719
▁4:12	-12.2719
▁1:12	-12.2719
▁wren	-12.2719
▁Bedford	-12.2719
▁persever	-12.2719
▁cloy	-12.2719
▁terminal	-12.2719
▁Dagon	-12.272
▁slide	-12.272
▁Crane	-12.272
▁Sense	-12.272
▁Equal	-12.272
▁Brown	-12.272
Revelation	-12.272
▁memorie	-12.272
▁denote	-12.272
▁Altar	-12.2721
▁Large	-12.2721
▁36:2	-12.2721
▁Emma	-12.2736
apper	-12.2742
position	-12.2769
purse	-12.2857
▁perceiv	-12.3017
angel	-12.3027
▁Amorite	-12.3228
morrow	-12.3272
▁associate	-12.3376
blown	-12.3428
▁churl	-12.3431
▁Dunsinane	-12.3433
▁exclusive	-12.3433
▁fundamental	-12.3433
▁industrial	-12.3433
▁malignant	-12.3433
▁preposterous	-12.3433
▁rejoyc	-12.3433
Bartholomew	-12.3433
EXTON	-12.3433
vulnerable	-12.3433
▁2:14	-12.3433
▁4:10	-12.3433
▁ABHORSON	-12.3433
▁ANTIOCHUS	-12.3433
▁Astraeus	-12.3433
▁BUSHY	-12.3433
▁Belmont	-12.3433
▁Bethhoron	-12.3433
▁Biondello	-12.3433
▁CASSANDRA	-12.3433
▁Chaldees	-12.3433
▁Committee	-12.3433
▁Community	-12.3433
▁DAVY	-12.3433
▁Dumaine	-12.3433
▁Eleanor	-12.3433
▁Environ	-12.3433
▁Flood	-12.3433
▁Florida	-12.3433
▁Gershom	-12.3433
▁Grammy	-12.3433
▁JAQUENETTA	-12.3433
▁Jeduthun	-12.3433
▁Jerubbaal	-12.3433
▁Kreeft	-12.3433
▁Leaving	-12.3433
▁MAMILLIUS	-12.3433
▁MOPSA	-12.3433
▁Nethaneel	-12.3433
▁Pekah	-12.3433
▁Pembroke	-12.3433
▁Peradventure	-12.3433
▁Pyrrhus	-12.3433
▁REYNALDO	-12.3433
▁Regiment	-12.3433
▁Register	-12.3433
▁Religion	-12.3433
▁SAYE	-12.3433
▁SCROOP	-12.3433
▁Sadducees	-12.3433
▁Savannah	-12.3433
▁Success	-12.3433
▁Sultan	-12.3433
▁Support	-12.3433
▁Sydney	-12.3433
▁Tadeusz	-12.3433
▁Traitor	-12.3433
▁Treason	-12.3433
▁Universal	-12.3433
▁Uzza	-12.3433
▁abstain	-12.3433
▁activist	-12.3433
▁advertisement	-12.3433
▁calendar	-12.3433
▁concentration	-12.3433
▁concord	-12.3433
▁conjunction	-12.3433
▁consecration	-12.3433
▁courtezan	-12.3433
▁decrease	-12.3433
▁denomination	-12.3433
▁destitute	-12.3433
▁dissolution	-12.3433
▁elegans	-12.3433
▁enlisted	-12.3433
▁equity	-12.3433
▁examination	-12.3433
▁extraordinary	-12.3433
▁greyhound	-12.3433
▁identity	-12.3433
▁imminent	-12.3433
▁injustice	-12.3433
▁investigation	-12.3433
▁jerkin	-12.3433
▁laboratory	-12.3433
▁maintenance	-12.3433
▁malady	-12.3433
▁manservant	-12.3433
▁maximum	-12.3433
▁minstrel	-12.3433
▁occupy	-12.3433
▁peremptory	-12.3433
▁perspective	-12.3433
▁phoenix	-12.3433
▁plentiful	-12.3433
▁provocation	-12.3433
▁recruit	-12.3433
▁regulation	-12.3433
▁responsibility	-12.3433
▁segment	-12.3433
▁simultaneous	-12.3433
▁societie	-12.3433
▁unicorn	-12.3433
▁unsuccessful	-12.3433
▁venison	-12.3433
▁wofull	-12.3433
▁(2003)	-12.3433
▁Fischer	-12.3433
▁Hindu	-12.3433
▁Moody	-12.3433
▁Trouble	-12.3433
▁credulous	-12.3433
▁desirous	-12.3433
▁purified	-12.3433
▁respite	-12.3433
▁substrate	-12.3433
▁swept	-12.3433
▁undertook	-12.3433
▁xvii	-12.3433
▁Alamos	-12.3433
▁Atomic	-12.3433
▁Barbary	-12.3433
▁Defence	-12.3433
▁Kevin	-12.3433
▁existence	-12.3433
▁overcame	-12.3433
▁1979	-12.3433
▁Chapman	-12.3433
▁cricket	-12.3433
▁Bastard	-12.3433
▁Rouen	-12.3433
▁translation	-12.3433
▁truant	-12.3433
▁1925	-12.3433
▁1947	-12.3433
▁Rehob	-12.3433
▁paragon	-12.3433
▁1948	-12.3433
▁Philomel	-12.3433
▁vesture	-12.3433
▁darling	-12.3433
▁Potent	-12.3433
▁Debir	-12.3433
▁Pashur	-12.3433
▁initiate	-12.3433
▁levied	-12.3433
▁pastoral	-12.3433
▁slime	-12.3433
▁Greet	-12.3433
▁Silent	-12.3433
▁cherry	-12.3433
▁foretold	-12.3433
▁thereupon	-12.3433
▁Adult	-12.3434
▁Geba	-12.3434
▁Sphear	-12.3434
▁shadie	-12.3434
▁Worse	-12.3434
▁tank	-12.3434
▁traveil	-12.3434
▁wield	-12.3434
▁lilies	-12.3434
▁regent	-12.3434
▁wreak	-12.3434
▁whirl	-12.3434
▁TWO	-12.3434
▁havoc	-12.3434
▁blockade	-12.3434
▁prune	-12.3435
▁staid	-12.3435
▁Parthia	-12.3438
▁demi	-12.3447
▁Describe	-12.3491
▁denounc	-12.3504
apple	-12.3516
▁Pharisee	-12.3997
▁conceiv	-12.4111
▁construct	-12.4157
screen	-12.4196
November	-12.4196
dollar	-12.4196
built	-12.4196
release	-12.4196
=	-12.4203
Cynthia	-12.4203
▁3:10	-12.4203
▁4:14	-12.4203
▁5:10	-12.4203
▁AMIENS	-12.4203
▁AUDREY	-12.4203
▁Abinadab	-12.4203
▁Amminadab	-12.4203
▁Antenor	-12.4203
▁BOATSWAIN	-12.4203
▁Charlotte	-12.4203
▁Chutzpah	-12.4203
▁Columbia	-12.4203
▁Coventry	-12.4203
▁DECIUS	-12.4203
▁Deborah	-12.4203
▁Diamond	-12.4203
▁Eastcheap	-12.4203
▁Eglon	-12.4203
▁Faulconbridge	-12.4203
▁Firmament	-12.4203
▁GENTLEWOMAN	-12.4203
▁GREEN	-12.4203
▁GRIFFITH	-12.4203
▁Gezer	-12.4203
▁Hinnom	-12.4203
▁Jedaiah	-12.4203
▁Jerzy	-12.4203
▁LEONINE	-12.4203
▁LOST	-12.4203
▁Magazine	-12.4203
▁Magnolia	-12.4203
▁Mahanaim	-12.4203
▁Majestie	-12.4203
▁Mediterranean	-12.4203
▁Megaliths	-12.4203
▁Nazarite	-12.4203
▁Osiris	-12.4203
▁PYRAMUS	-12.4203
▁Parliament	-12.4203
▁Piggott	-12.4203
▁Publish	-12.4203
▁Rabbah	-12.4203
▁Remaliah	-12.4203
▁SCARUS	-12.4203
▁Sennacherib	-12.4203
▁Strength	-12.4203
▁THIDIAS	-12.4203
▁Treaty	-12.4203
▁UNESCO	-12.4203
▁Underneath	-12.4203
▁Ventidius	-12.4203
▁abilities	-12.4203
▁abolish	-12.4203
▁advisd	-12.4203
▁artificial	-12.4203
▁battlecruiser	-12.4203
▁biography	-12.4203
▁caitiff	-12.4203
▁complement	-12.4203
▁dalliance	-12.4203
▁diagnosis	-12.4203
▁disappoint	-12.4203
▁discomfited	-12.4203
▁disinherit	-12.4203
▁enfranchise	-12.4203
▁frenzy	-12.4203
▁fugitive	-12.4203
▁gambling	-12.4203
▁hypocrisy	-12.4203
▁hyssop	-12.4203
▁idiot	-12.4203
▁idolatry	-12.4203
▁infancy	-12.4203
▁lantern	-12.4203
▁merciless	-12.4203
▁obvious	-12.4203
▁psaltery	-12.4203
▁punctuation	-12.4203
▁quight	-12.4203
▁rabble	-12.4203
▁recognised	-12.4203
▁recognition	-12.4203
▁ruminate	-12.4203
▁sensual	-12.4203
▁sketch	-12.4203
▁sorcerer	-12.4203
▁speckled	-12.4203
▁straunge	-12.4203
▁sulphur	-12.4203
▁sumptuous	-12.4203
▁surviving	-12.4203
▁sweetheart	-12.4203
▁terrour	-12.4203
▁thunderbolt	-12.4203
▁twilight	-12.4203
▁typewriter	-12.4203
▁Albany	-12.4203
▁Ancona	-12.4203
▁Benedict	-12.4203
▁Ephron	-12.4203
▁Goneril	-12.4203
▁Hartley	-12.4203
▁Kareah	-12.4203
▁Profess	-12.4203
▁RALPH	-12.4203
▁architectural	-12.4203
▁celebration	-12.4203
▁cloven	-12.4203
▁disrupt	-12.4203
▁elephant	-12.4203
▁enlighten	-12.4203
▁ensuing	-12.4203
▁jail	-12.4203
▁organisation	-12.4203
▁plaster	-12.4203
▁pollution	-12.4203
▁somebody	-12.4203
▁Abihu	-12.4203
▁Concept	-12.4203
▁Jazz	-12.4203
▁abridg	-12.4203
▁caution	-12.4203
▁cushion	-12.4203
▁duteous	-12.4203
▁groat	-12.4203
▁inhibit	-12.4203
▁streight	-12.4203
▁twelvemonth	-12.4203
▁venue	-12.4203
▁warfare	-12.4203
▁Joppa	-12.4203
▁Voice	-12.4203
▁brink	-12.4203
▁clutch	-12.4203
▁reverent	-12.4203
▁1923	-12.4203
▁1927	-12.4203
▁1976	-12.4203
▁1977	-12.4203
▁Square	-12.4203
▁brush	-12.4203
▁coarse	-12.4203
▁elves	-12.4203
▁jig	-12.4203
▁watry	-12.4203
▁Costard	-12.4203
▁Tunis	-12.4203
▁Abhor	-12.4203
▁Kneel	-12.4203
▁Urge	-12.4203
▁armament	-12.4203
▁Convey	-12.4203
▁dispense	-12.4203
▁Character	-12.4203
▁clasp	-12.4203
▁Pilot	-12.4203
▁Calais	-12.4203
▁brine	-12.4203
▁musk	-12.4203
▁Dishon	-12.4203
▁HORN	-12.4203
▁mishap	-12.4203
▁Tartar	-12.4203
▁overtook	-12.4203
▁excite	-12.4203
▁remedie	-12.4203
▁flea	-12.4203
▁matron	-12.4203
▁unmov	-12.4204
dreadnought	-12.4204
▁Satyr	-12.4204
▁Change	-12.4206
▁Collect	-12.4206
▁Preserv	-12.4213
▁WHI	-12.4214
fidelity	-12.4227
Vision	-12.4374
▁interpos	-12.4652
rapping	-12.4703
▁acknowledg	-12.4808
gotten	-12.4916
▁introduce	-12.4979
▁baptize	-12.4979
aircraft	-12.5029
General	-12.5029
John	-12.5029
Which	-12.5029
gracious	-12.5029
OLD	-12.5031
▁escort	-12.5036
▁prognostic	-12.5036
Deacon	-12.5036
OUND	-12.5036
pothecary	-12.5036
▁9:14	-12.5036
▁Atlantic	-12.5036
▁BRAKENBURY	-12.5036
▁Bachchan	-12.5036
▁Barabbas	-12.5036
▁Barzillai	-12.5036
▁Basketball	-12.5036
▁Bertram	-12.5036
▁Bollywood	-12.5036
▁Bottom	-12.5036
▁CORVINO	-12.5036
▁COURTESAN	-12.5036
▁Caliban	-12.5036
▁Caribbean	-12.5036
▁Confusion	-12.5036
▁Constantin	-12.5036
▁Continu	-12.5036
▁DORCAS	-12.5036
▁DePaul	-12.5036
▁Defense	-12.5036
▁Excursions	-12.5036
▁Finnish	-12.5036
▁Fluellen	-12.5036
▁Fortinbras	-12.5036
▁Gehazi	-12.5036
▁Gertrude	-12.5036
▁Gloriana	-12.5036
▁HOLLAND	-12.5036
▁Hadarezer	-12.5036
▁Haggai	-12.5036
▁Iscariot	-12.5036
*	-13.4394
~	-15.5225
@	-15.5226
>	-15.5227
<	-15.5228
#	-15.5229
+	-15.523
|	-15.5231
$	-15.5232
/	-15.5233
%	-15.5234
&	-15.5235
^	-15.5235
